{
  "version": "1.0",
  "truncation": null,
  "padding": null,
  "added_tokens": [
    {
      "id": 0,
      "content": "[UNK]",
      "single_word": false,
      "lstrip": false,
      "rstrip": false,
      "normalized": false,
      "special": true
    },
    {
      "id": 1,
      "content": "[PAD]",
      "single_word": false,
      "lstrip": false,
      "rstrip": false,
      "normalized": false,
      "special": true
    },
    {
      "id": 2,
      "content": " ",
      "single_word": false,
      "lstrip": false,
      "rstrip": false,
      "normalized": false,
      "special": true
    }
  ],
  "normalizer": {
    "type": "Sequence",
    "normalizers": [
      {
        "type": "NFD"
      },
      {
        "type": "Lowercase"
      },
      {
        "type": "Strip",
        "strip_left": true,
        "strip_right": true
      },
      {
        "type": "Replace",
        "pattern": {
          "String": "[\\(\\)\\_\\,\\?\\.\\!\\-\\;\\:\"\\“\\%\\‘\\”\\�']"
        },
        "content": ""
      }
    ]
  },
  "pre_tokenizer": {
    "type": "Whitespace"
  },
  "post_processor": null,
  "decoder": null,
  "model": {
    "type": "BPE",
    "dropout": null,
    "unk_token": "[UNK]",
    "continuing_subword_prefix": null,
    "end_of_word_suffix": null,
    "fuse_unk": false,
    "byte_fallback": false,
    "vocab": {
      "[UNK]": 0,
      "[PAD]": 1,
      " ": 2,
      "!": 3,
      "'": 4,
      "*": 5,
      ",": 6,
      "-": 7,
      ".": 8,
      ":": 9,
      ";": 10,
      "?": 11,
      "a": 12,
      "b": 13,
      "d": 14,
      "e": 15,
      "f": 16,
      "g": 17,
      "h": 18,
      "i": 19,
      "k": 20,
      "l": 21,
      "m": 22,
      "n": 23,
      "o": 24,
      "p": 25,
      "r": 26,
      "s": 27,
      "t": 28,
      "u": 29,
      "v": 30,
      "w": 31,
      "y": 32,
      "z": 33,
      "«": 34,
      "»": 35,
      "̀": 36,
      "̂": 37,
      "̇": 38,
      "̈": 39,
      "“": 40,
      "”": 41,
      "ë": 42,
      "ò": 43,
      "an": 44,
      "bë": 45,
      "na": 46,
      "è": 47,
      "am": 48,
      "mi": 49,
      "ng": 50,
      "dz": 51,
      "ai": 52,
      "ny": 53,
      "ṅ": 54,
      "nd": 55,
      "bò": 56,
      "bi": 57,
      "ba": 58,
      "më": 59,
      "ya": 60,
      "od": 61,
      "ma": 62,
      "nyè": 63,
      "nga": 64,
      "ye": 65,
      "yë": 66,
      "su": 67,
      "ndò": 68,
      "ga": 69,
      "së": 70,
      "si": 71,
      "ki": 72,
      "la": 73,
      "oe": 74,
      "anga": 75,
      "yi": 76,
      "në": 77,
      "te": 78,
      "ab": 79,
      "og": 80,
      "lë": 81,
      "ak": 82,
      "aṅ": 83,
      "fë": 84,
      "di": 85,
      "nt": 86,
      "òṅ": 87,
      "wa": 88,
      "asu": 89,
      "amba": 90,
      "mod": 91,
      "us": 92,
      "om": 93,
      "mina": 94,
      "bod": 95,
      "anë": 96,
      "zamba": 97,
      "abë": 98,
      "ol": 99,
      "bënga": 100,
      "en": 101,
      "ug": 102,
      "nyò": 103,
      "ku": 104,
      "mv": 105,
      "ban": 106,
      "bia": 107,
      "të": 108,
      "amu": 109,
      "et": 110,
      "mb": 111,
      "ngë": 112,
      "li": 113,
      "fu": 114,
      "da": 115,
      "iṅ": 116,
      "sò": 117,
      "dzam": 118,
      "ri": 119,
      "oa": 120,
      "man": 121,
      "min": 122,
      "ka": 123,
      "dzi": 124,
      "hm": 125,
      "sus": 126,
      "tò": 127,
      "mbë": 128,
      "dzo": 129,
      "yesus": 130,
      "lan": 131,
      "vë": 132,
      "os": 133,
      "mia": 134,
      "nti": 135,
      "ul": 136,
      "yen": 137,
      "kò": 138,
      "hë": 139,
      "es": 140,
      "èg": 141,
      "ègè": 142,
      "yo": 143,
      "yòṅ": 144,
      "mò": 145,
      "kë": 146,
      "yëbë": 147,
      "at": 148,
      "al": 149,
      "ui": 150,
      "mam": 151,
      "wog": 152,
      "dzoe": 153,
      "yëm": 154,
      "nda": 155,
      "ris": 156,
      "ra": 157,
      "fa": 158,
      "mbò": 159,
      "tus": 160,
      "gë": 161,
      "ha": 162,
      "oan": 163,
      "ngò": 164,
      "end": 165,
      "dzë": 166,
      "ziṅ": 167,
      "ti": 168,
      "nyòl": 169,
      "eyòṅ": 170,
      "ayi": 171,
      "kris": 172,
      "zu": 173,
      "woe": 174,
      "sim": 175,
      "kristus": 176,
      "nala": 177,
      "ama": 178,
      "nyi": 179,
      "ta": 180,
      "yob": 181,
      "ende": 182,
      "on": 183,
      "abui": 184,
      "mbol": 185,
      "wu": 186,
      "aman": 187,
      "tègè": 188,
      "bësë": 189,
      "ete": 190,
      "fi": 191,
      "sisim": 192,
      "nëm": 193,
      "eb": 194,
      "bëlë": 195,
      "mòn": 196,
      "yu": 197,
      "lu": 198,
      "za": 199,
      "mënga": 200,
      "le": 201,
      "kòbò": 202,
      "uma": 203,
      "aban": 204,
      "abò": 205,
      "ndi": 206,
      "nsisim": 207,
      "kad": 208,
      "nyiṅ": 209,
      "gi": 210,
      "gan": 211,
      "esë": 212,
      "bëb": 213,
      "akë": 214,
      "angabë": 215,
      "òg": 216,
      "ngul": 217,
      "osë": 218,
      "ko": 219,
      "nnëm": 220,
      "diṅ": 221,
      "fub": 222,
      "waan": 223,
      "dug": 224,
      "dzie": 225,
      "dë": 226,
      "adzo": 227,
      "lè": 228,
      "em": 229,
      "kui": 230,
      "toa": 231,
      "mint": 232,
      "dzò": 233,
      "mbòg": 234,
      "dan": 235,
      "dza": 236,
      "gëlë": 237,
      "as": 238,
      "ugu": 239,
      "ag": 240,
      "dugan": 241,
      "mfu": 242,
      "mvende": 243,
      "den": 244,
      "mayi": 245,
      "dzëki": 246,
      "ṅyëbë": 247,
      "dzom": 248,
      "osu": 249,
      "abog": 250,
      "kan": 251,
      "enë": 252,
      "onë": 253,
      "enyiṅ": 254,
      "rus": 255,
      "yaè": 256,
      "kod": 257,
      "hala": 258,
      "bëbë": 259,
      "sëm": 260,
      "amos": 261,
      "sëki": 262,
      "un": 263,
      "aw": 264,
      "yean": 265,
      "ëlan": 266,
      "bayi": 267,
      "sòṅ": 268,
      "eng": 269,
      "zi": 270,
      "ṅnyè": 271,
      "dzaṅ": 272,
      "lò": 273,
      "yègè": 274,
      "ogëlan": 275,
      "bënë": 276,
      "dò": 277,
      "el": 278,
      "fò": 279,
      "yian": 280,
      "tòbò": 281,
      "etoa": 282,
      "inga": 283,
      "sye": 284,
      "sog": 285,
      "minga": 286,
      "dze": 287,
      "abëlë": 288,
      "babë": 289,
      "nku": 290,
      "mbëṅ": 291,
      "onga": 292,
      "tsi": 293,
      "mis": 294,
      "mbi": 295,
      "akyaè": 296,
      "mfufub": 297,
      "ebug": 298,
      "bëngabë": 299,
      "mimb": 300,
      "mbëmbë": 301,
      "binga": 302,
      "enga": 303,
      "nam": 304,
      "mëk": 305,
      "mënë": 306,
      "aṅan": 307,
      "pa": 308,
      "avë": 309,
      "lo": 310,
      "yëgëlë": 311,
      "du": 312,
      "ro": 313,
      "tara": 314,
      "ala": 315,
      "mf": 316,
      "boe": 317,
      "loe": 318,
      "òbò": 319,
      "esya": 320,
      "yuden": 321,
      "esye": 322,
      "amana": 323,
      "die": 324,
      "òm": 325,
      "bëyègè": 326,
      "edzoe": 327,
      "mfa": 328,
      "dzëṅ": 329,
      "bëbëla": 330,
      "ea": 331,
      "nnam": 332,
      "lom": 333,
      "zaṅ": 334,
      "etye": 335,
      "mininga": 336,
      "ed": 337,
      "mana": 338,
      "bo": 339,
      "ulus": 340,
      "ev": 341,
      "atoa": 342,
      "kala": 343,
      "ndon": 344,
      "mësë": 345,
      "mvus": 346,
      "sa": 347,
      "hom": 348,
      "pro": 349,
      "sili": 350,
      "prof": 351,
      "bòn": 352,
      "sòn": 353,
      "oo": 354,
      "asò": 355,
      "miayi": 356,
      "wò": 357,
      "to": 358,
      "ndë": 359,
      "odo": 360,
      "duma": 361,
      "lès": 362,
      "va": 363,
      "wama": 364,
      "ndim": 365,
      "yan": 366,
      "englès": 367,
      "ṅan": 368,
      "ulu": 369,
      "fidi": 370,
      "bòò": 371,
      "akui": 372,
      "èt": 373,
      "bisë": 374,
      "zë": 375,
      "aku": 376,
      "paulus": 377,
      "bu": 378,
      "foe": 379,
      "nk": 380,
      "bib": 381,
      "mëlu": 382,
      "makad": 383,
      "mvo": 384,
      "bye": 385,
      "vòg": 386,
      "eyë": 387,
      "èè": 388,
      "emen": 389,
      "babëdzaṅ": 390,
      "mvoè": 391,
      "awu": 392,
      "andzëki": 393,
      "zen": 394,
      "sos": 395,
      "tu": 396,
      "bëfa": 397,
      "kòm": 398,
      "azu": 399,
      "tëlë": 400,
      "sosoo": 401,
      "kogëlan": 402,
      "binë": 403,
      "gba": 404,
      "yënë": 405,
      "maa": 406,
      "akòbò": 407,
      "ntilan": 408,
      "koan": 409,
      "pet": 410,
      "petrus": 411,
      "yëmë": 412,
      "akëlë": 413,
      "olugu": 414,
      "nom": 415,
      "babi": 416,
      "minë": 417,
      "fëg": 418,
      "etòm": 419,
      "wayi": 420,
      "tisòn": 421,
      "nen": 422,
      "tsog": 423,
      "yè": 424,
      "ṅyian": 425,
      "tele": 426,
      "tëbë": 427,
      "ge": 428,
      "aka": 429,
      "alem": 430,
      "bëvòg": 431,
      "bidi": 432,
      "ediṅ": 433,
      "yerus": 434,
      "olo": 435,
      "yerusalem": 436,
      "af": 437,
      "nòṅ": 438,
      "kiṅ": 439,
      "aṅë": 440,
      "kuma": 441,
      "dzaan": 442,
      "kp": 443,
      "mos": 444,
      "anyu": 445,
      "këlë": 446,
      "is": 447,
      "anòṅ": 448,
      "abe": 449,
      "tari": 450,
      "kode": 451,
      "byem": 452,
      "fulu": 453,
      "til": 454,
      "nlo": 455,
      "ana": 456,
      "èd": 457,
      "minsëm": 458,
      "afidi": 459,
      "asë": 460,
      "ayen": 461,
      "han": 462,
      "nsë": 463,
      "lëdë": 464,
      "nyia": 465,
      "kalara": 466,
      "profèt": 467,
      "mfë": 468,
      "dzug": 469,
      "abi": 470,
      "gò": 471,
      "nes": 472,
      "nsëm": 473,
      "yohan": 474,
      "yohannes": 475,
      "ntol": 476,
      "bëbè": 477,
      "mfag": 478,
      "daṅ": 479,
      "nnom": 480,
      "awog": 481,
      "nka": 482,
      "amen": 483,
      "nkòbò": 484,
      "zam": 485,
      "daan": 486,
      "ati": 487,
      "dzog": 488,
      "mfaṅ": 489,
      "er": 490,
      "mian": 491,
      "eli": 492,
      "we": 493,
      "nsëṅ": 494,
      "ele": 495,
      "re": 496,
      "dzia": 497,
      "hai": 498,
      "saṅ": 499,
      "haiden": 500,
      "asëki": 501,
      "dama": 502,
      "mfi": 503,
      "dzama": 504,
      "moe": 505,
      "mëb": 506,
      "vi": 507,
      "mëki": 508,
      "ata": 509,
      "mëkol": 510,
      "um": 511,
      "alodo": 512,
      "ola": 513,
      "baala": 514,
      "mòni": 515,
      "ap": 516,
      "angavë": 517,
      "yie": 518,
      "awom": 519,
      "nkukuma": 520,
      "angab": 521,
      "mvi": 522,
      "minnëm": 523,
      "bëben": 524,
      "mintag": 525,
      "nkat": 526,
      "atari": 527,
      "bat": 528,
      "ndëm": 529,
      "mp": 530,
      "yaṅan": 531,
      "bëhaiden": 532,
      "angabò": 533,
      "temp": 534,
      "tempel": 535,
      "hi": 536,
      "ndoan": 537,
      "bie": 538,
      "mimboan": 539,
      "antoa": 540,
      "bisye": 541,
      "mëte": 542,
      "nyii": 543,
      "lod": 544,
      "mënda": 545,
      "zamgba": 546,
      "mbaṅë": 547,
      "fufulu": 548,
      "mbaṅëla": 549,
      "wom": 550,
      "bëk": 551,
      "yayi": 552,
      "etam": 553,
      "zimbi": 554,
      "òn": 555,
      "bëzimbi": 556,
      "mëndim": 557,
      "maan": 558,
      "oste": 559,
      "fili": 560,
      "minku": 561,
      "risea": 562,
      "nkunda": 563,
      "maṅ": 564,
      "bëbò": 565,
      "amë": 566,
      "ngab": 567,
      "akuma": 568,
      "miayëm": 569,
      "angayen": 570,
      "biayi": 571,
      "ostel": 572,
      "kom": 573,
      "mimfufub": 574,
      "ode": 575,
      "mvu": 576,
      "tsig": 577,
      "tsit": 578,
      "apostel": 579,
      "zamgbal": 580,
      "ben": 581,
      "tye": 582,
      "uṅ": 583,
      "kòb": 584,
      "mintye": 585,
      "sat": 586,
      "boan": 587,
      "angan": 588,
      "omba": 589,
      "ole": 590,
      "mvòṅ": 591,
      "avëë": 592,
      "ede": 593,
      "lugu": 594,
      "wòṅ": 595,
      "ëṅ": 596,
      "bakë": 597,
      "akode": 598,
      "bëbe": 599,
      "mfyè": 600,
      "dzoge": 601,
      "efa": 602,
      "laṅ": 603,
      "zan": 604,
      "ṅa": 605,
      "yali": 606,
      "ngòl": 607,
      "bòòlò": 608,
      "benglès": 609,
      "voe": 610,
      "yaṅ": 611,
      "dzaban": 612,
      "olun": 613,
      "fam": 614,
      "kam": 615,
      "bëng": 616,
      "ngo": 617,
      "yedan": 618,
      "yiṅ": 619,
      "ria": 620,
      "alu": 621,
      "rah": 622,
      "awola": 623,
      "moses": 624,
      "atarigi": 625,
      "mëwog": 626,
      "ombo": 627,
      "bandzëki": 628,
      "bëfada": 629,
      "satan": 630,
      "ayëgëlë": 631,
      "mëzan": 632,
      "ntoa": 633,
      "vëṅan": 634,
      "ayòṅ": 635,
      "adiṅ": 636,
      "bëtoa": 637,
      "mie": 638,
      "kodo": 639,
      "ef": 640,
      "ndzoe": 641,
      "ud": 642,
      "yalan": 643,
      "mazu": 644,
      "angakë": 645,
      "abrah": 646,
      "rael": 647,
      "fada": 648,
      "enguṅ": 649,
      "bëfarisea": 650,
      "israel": 651,
      "abraham": 652,
      "woge": 653,
      "simun": 654,
      "nyian": 655,
      "babëny": 656,
      "adugan": 657,
      "los": 658,
      "biayëm": 659,
      "ligi": 660,
      "miabò": 661,
      "ngòn": 662,
      "bisëb": 663,
      "bibug": 664,
      "afub": 665,
      "ts": 666,
      "wulu": 667,
      "bin": 668,
      "mayëm": 669,
      "minsisim": 670,
      "soe": 671,
      "sab": 672,
      "mibò": 673,
      "mamen": 674,
      "lèè": 675,
      "babò": 676,
      "sòò": 677,
      "mimbu": 678,
      "ayëm": 679,
      "toan": 680,
      "waban": 681,
      "bëbëlë": 682,
      "bibëlë": 683,
      "gali": 684,
      "angalom": 685,
      "ogolo": 686,
      "ayean": 687,
      "kus": 688,
      "tan": 689,
      "vol": 690,
      "mëwom": 691,
      "mal": 692,
      "kuan": 693,
      "mbo": 694,
      "manyaṅ": 695,
      "dëda": 696,
      "mfuban": 697,
      "mëkyëbë": 698,
      "toban": 699,
      "nnomo": 700,
      "adi": 701,
      "bëprofèt": 702,
      "bëngavë": 703,
      "ngogëlan": 704,
      "bikoan": 705,
      "mëlò": 706,
      "mëtu": 707,
      "nyòlò": 708,
      "lea": 709,
      "galilea": 710,
      "klos": 711,
      "anyian": 712,
      "ntye": 713,
      "zëzë": 714,
      "bè": 715,
      "vò": 716,
      "yanga": 717,
      "ang": 718,
      "bar": 719,
      "ten": 720,
      "osusu": 721,
      "tyan": 722,
      "amaṅ": 723,
      "mëbò": 724,
      "kidi": 725,
      "bibuma": 726,
      "mkp": 727,
      "yòg": 728,
      "yaan": 729,
      "fudi": 730,
      "kòn": 731,
      "vaa": 732,
      "bininga": 733,
      "daban": 734,
      "mibëlë": 735,
      "miaban": 736,
      "dibi": 737,
      "bëngayi": 738,
      "mvòm": 739,
      "zaag": 740,
      "engabë": 741,
      "loṅ": 742,
      "akad": 743,
      "babënyaṅ": 744,
      "oṅ": 745,
      "pi": 746,
      "ṅyë": 747,
      "ndiṅ": 748,
      "lala": 749,
      "angasò": 750,
      "lig": 751,
      "kob": 752,
      "vaè": 753,
      "nòṅò": 754,
      "sabbat": 755,
      "doe": 756,
      "vogolo": 757,
      "woa": 758,
      "bëziṅ": 759,
      "maban": 760,
      "profet": 761,
      "osusua": 762,
      "mkpamaṅ": 763,
      "atòbò": 764,
      "ngaṅ": 765,
      "mòngò": 766,
      "ahë": 767,
      "be": 768,
      "taṅ": 769,
      "vu": 770,
      "yò": 771,
      "zombo": 772,
      "bëm": 773,
      "bëbi": 774,
      "bënen": 775,
      "ndu": 776,
      "angakui": 777,
      "abye": 778,
      "abende": 779,
      "omo": 780,
      "zaa": 781,
      "abòò": 782,
      "ayëbë": 783,
      "ayëmë": 784,
      "ia": 785,
      "bëwu": 786,
      "bazu": 787,
      "yëṅ": 788,
      "nëṅa": 789,
      "olò": 790,
      "bëngayen": 791,
      "mbè": 792,
      "ngëëṅ": 793,
      "yon": 794,
      "luman": 795,
      "mëngabë": 796,
      "ndindiṅ": 797,
      "mimbog": 798,
      "obò": 799,
      "uban": 800,
      "baku": 801,
      "subu": 802,
      "angadzo": 803,
      "davi": 804,
      "sòman": 805,
      "komëzan": 806,
      "ongabë": 807,
      "mbim": 808,
      "toṅ": 809,
      "david": 810,
      "nguma": 811,
      "mësu": 812,
      "mëbëlë": 813,
      "sigi": 814,
      "layi": 815,
      "ntë": 816,
      "mindzug": 817,
      "wogo": 818,
      "mbòò": 819,
      "mëtunëṅa": 820,
      "ot": 821,
      "bëkëlë": 822,
      "bëkalara": 823,
      "ngam": 824,
      "dzal": 825,
      "bian": 826,
      "yakob": 827,
      "etun": 828,
      "mandzëki": 829,
      "abim": 830,
      "mvua": 831,
      "ëban": 832,
      "bëkë": 833,
      "bënyia": 834,
      "dzèè": 835,
      "nyu": 836,
      "mëdzo": 837,
      "yab": 838,
      "ambara": 839,
      "ziṅan": 840,
      "nkod": 841,
      "ob": 842,
      "bad": 843,
      "mabò": 844,
      "maria": 845,
      "ngaga": 846,
      "lad": 847,
      "abum": 848,
      "ntud": 849,
      "abëṅ": 850,
      "yandi": 851,
      "ve": 852,
      "wamen": 853,
      "yn": 854,
      "bëmana": 855,
      "dzu": 856,
      "bibò": 857,
      "biyòṅ": 858,
      "biyie": 859,
      "mas": 860,
      "wabò": 861,
      "wadzo": 862,
      "wayn": 863,
      "kuli": 864,
      "mbu": 865,
      "nko": 866,
      "ṅyëgëlë": 867,
      "baloe": 868,
      "mëdugan": 869,
      "mayen": 870,
      "etere": 871,
      "mintomba": 872,
      "dzaè": 873,
      "kana": 874,
      "uni": 875,
      "ayënë": 876,
      "badzo": 877,
      "makòbò": 878,
      "nyie": 879,
      "zar": 880,
      "sogan": 881,
      "kodeban": 882,
      "atëlë": 883,
      "esi": 884,
      "kai": 885,
      "mu": 886,
      "otoa": 887,
      "misë": 888,
      "masëki": 889,
      "tòb": 890,
      "mbòn": 891,
      "nkol": 892,
      "afan": 893,
      "elig": 894,
      "saṅa": 895,
      "afu": 896,
      "ek": 897,
      "bëtara": 898,
      "latus": 899,
      "endë": 900,
      "yuda": 901,
      "asye": 902,
      "eyëgan": 903,
      "bëkon": 904,
      "efaè": 905,
      "pilatus": 906,
      "mbòòlan": 907,
      "eyie": 908,
      "nan": 909,
      "bidzo": 910,
      "bas": 911,
      "bayëm": 912,
      "mël": 913,
      "makë": 914,
      "tag": 915,
      "mëngayen": 916,
      "asoe": 917,
      "awogo": 918,
      "erod": 919,
      "dea": 920,
      "eko": 921,
      "okë": 922,
      "angë": 923,
      "bëzamba": 924,
      "bëyëbë": 925,
      "bëlò": 926,
      "miama": 927,
      "bitoa": 928,
      "mëmana": 929,
      "angayi": 930,
      "ogo": 931,
      "ntèd": 932,
      "bëngasò": 933,
      "bëngakë": 934,
      "dzala": 935,
      "akòbògò": 936,
      "azombo": 937,
      "osòn": 938,
      "tam": 939,
      "bòngò": 940,
      "sie": 941,
      "bëngab": 942,
      "mvò": 943,
      "minkòbò": 944,
      "amala": 945,
      "yudea": 946,
      "mvia": 947,
      "minkunda": 948,
      "anganòṅ": 949,
      "vòli": 950,
      "adaṅ": 951,
      "ovoe": 952,
      "bëfë": 953,
      "miak": 954,
      "bòban": 955,
      "mëyòṅ": 956,
      "mëkë": 957,
      "mëtari": 958,
      "kag": 959,
      "tie": 960,
      "fin": 961,
      "bakuda": 962,
      "herod": 963,
      "nkò": 964,
      "nòn": 965,
      "bës": 966,
      "bësye": 967,
      "miṅyian": 968,
      "ṅwu": 969,
      "bisog": 970,
      "mëyòg": 971,
      "madzo": 972,
      "madzaṅ": 973,
      "matil": 974,
      "angaloe": 975,
      "lëban": 976,
      "aloe": 977,
      "alug": 978,
      "ngòg": 979,
      "koba": 980,
      "dzòdi": 981,
      "evovoe": 982,
      "asili": 983,
      "obëlë": 984,
      "okala": 985,
      "oyò": 986,
      "oyab": 987,
      "nde": 988,
      "bili": 989,
      "bag": 990,
      "mëmos": 991,
      "yasò": 992,
      "angabi": 993,
      "bodo": 994,
      "dzoo": 995,
      "alom": 996,
      "one": 997,
      "zie": 998,
      "ziziṅ": 999,
      "duuban": 1000,
      "wòman": 1001,
      "ndimba": 1002,
      "bua": 1003,
      "gre": 1004,
      "yos": 1005,
      "bëdzoe": 1006,
      "bëgë": 1007,
      "baban": 1008,
      "bayen": 1009,
      "mët": 1010,
      "sug": 1011,
      "watyan": 1012,
      "oman": 1013,
      "abëgë": 1014,
      "mink": 1015,
      "alod": 1016,
      "mbil": 1017,
      "evu": 1018,
      "asòò": 1019,
      "mvit": 1020,
      "grek": 1021,
      "bèè": 1022,
      "eban": 1023,
      "fes": 1024,
      "kaman": 1025,
      "ëga": 1026,
      "bësaṅa": 1027,
      "ami": 1028,
      "mibè": 1029,
      "angawog": 1030,
      "angakòbò": 1031,
      "akab": 1032,
      "akodo": 1033,
      "endzò": 1034,
      "mvul": 1035,
      "ngënë": 1036,
      "bëbëgë": 1037,
      "mingabë": 1038,
      "avëṅan": 1039,
      "filip": 1040,
      "mvulna": 1041,
      "atele": 1042,
      "daman": 1043,
      "ebëlë": 1044,
      "kole": 1045,
      "ndzug": 1046,
      "owe": 1047,
      "okoba": 1048,
      "bëmbaṅëla": 1049,
      "ṅnyie": 1050,
      "mëtoa": 1051,
      "mayean": 1052,
      "ngal": 1053,
      "yënan": 1054,
      "dis": 1055,
      "ntomba": 1056,
      "bëngadzo": 1057,
      "kada": 1058,
      "miasëki": 1059,
      "faè": 1060,
      "aṅëdan": 1061,
      "nòni": 1062,
      "evundu": 1063,
      "byali": 1064,
      "bëte": 1065,
      "biè": 1066,
      "makogëlan": 1067,
      "angatele": 1068,
      "ntò": 1069,
      "mvoe": 1070,
      "yene": 1071,
      "tar": 1072,
      "bingabë": 1073,
      "akud": 1074,
      "tsogo": 1075,
      "ṅyëman": 1076,
      "dulu": 1077,
      "pas": 1078,
      "se": 1079,
      "tòṅ": 1080,
      "bëwoe": 1081,
      "miè": 1082,
      "mitoa": 1083,
      "mimbëmbë": 1084,
      "biaban": 1085,
      "mëku": 1086,
      "mëmvende": 1087,
      "akogëlan": 1088,
      "akòn": 1089,
      "kulan": 1090,
      "manyòṅ": 1091,
      "dzin": 1092,
      "esoa": 1093,
      "atsi": 1094,
      "onia": 1095,
      "bësëm": 1096,
      "dzaa": 1097,
      "saaṅ": 1098,
      "efas": 1099,
      "ntëgan": 1100,
      "yudas": 1101,
      "angënë": 1102,
      "mvòt": 1103,
      "afë": 1104,
      "alëdë": 1105,
      "bende": 1106,
      "egi": 1107,
      "pten": 1108,
      "».": 1109,
      "bëvë": 1110,
      "bëbòò": 1111,
      "nal": 1112,
      "miandzëki": 1113,
      "dzan": 1114,
      "nyë": 1115,
      "mëlè": 1116,
      "mëbo": 1117,
      "yëb": 1118,
      "akòg": 1119,
      "wayëm": 1120,
      "bëngazu": 1121,
      "kuu": 1122,
      "tëg": 1123,
      "minnal": 1124,
      "wum": 1125,
      "mintsogan": 1126,
      "mëbè": 1127,
      "egipten": 1128,
      "kaṅan": 1129,
      "laṅan": 1130,
      "mgba": 1131,
      "ni": 1132,
      "anyiṅ": 1133,
      "bëla": 1134,
      "bëyi": 1135,
      "nyamë": 1136,
      "bayean": 1137,
      "yat": 1138,
      "angakodo": 1139,
      "lëga": 1140,
      "bëngabò": 1141,
      "bëngakam": 1142,
      "kòs": 1143,
      "esamba": 1144,
      "mama": 1145,
      "bëngamana": 1146,
      "nkoṅ": 1147,
      "yosef": 1148,
      "nyamëla": 1149,
      "atëbë": 1150,
      "ekoan": 1151,
      "fyè": 1152,
      "kyëbë": 1153,
      "mba": 1154,
      "bëyëmë": 1155,
      "bënòṅò": 1156,
      "ming": 1157,
      "mimfaṅ": 1158,
      "mindindiṅ": 1159,
      "bifaè": 1160,
      "mawog": 1161,
      "wayean": 1162,
      "bëngawog": 1163,
      "dzibi": 1164,
      "eboe": 1165,
      "dzëṅë": 1166,
      "amëna": 1167,
      "angamana": 1168,
      "paska": 1169,
      "mëbobëla": 1170,
      "ebò": 1171,
      "wòbò": 1172,
      "biama": 1173,
      "bita": 1174,
      "biyëṅ": 1175,
      "bayëbë": 1176,
      "mëng": 1177,
      "mënyii": 1178,
      "masò": 1179,
      "angakad": 1180,
      "teus": 1181,
      "aṅa": 1182,
      "ugan": 1183,
      "biayean": 1184,
      "mbog": 1185,
      "tii": 1186,
      "esëki": 1187,
      "dëgan": 1188,
      "kodogo": 1189,
      "edonia": 1190,
      "masedonia": 1191,
      "ar": 1192,
      "bed": 1193,
      "efu": 1194,
      "fe": 1195,
      "im": 1196,
      "laṅëdan": 1197,
      "mo": 1198,
      "ndzaṅ": 1199,
      "nkode": 1200,
      "obë": 1201,
      "oban": 1202,
      "sama": 1203,
      "saman": 1204,
      "mibi": 1205,
      "miyëm": 1206,
      "ṅyègè": 1207,
      "ndaman": 1208,
      "bawog": 1209,
      "layean": 1210,
      "angadugan": 1211,
      "oge": 1212,
      "wazu": 1213,
      "sòm": 1214,
      "dzobo": 1215,
      "miayen": 1216,
      "mingawog": 1217,
      "toya": 1218,
      "nkòt": 1219,
      "ayë": 1220,
      "azaag": 1221,
      "bet": 1222,
      "evë": 1223,
      "nkë": 1224,
      "bëloe": 1225,
      "bësòò": 1226,
      "nazar": 1227,
      "miṅ": 1228,
      "angawu": 1229,
      "tëtëlë": 1230,
      "lum": 1231,
      "fubu": 1232,
      "mintèd": 1233,
      "zia": 1234,
      "zin": 1235,
      "tub": 1236,
      "mfëfëg": 1237,
      "minkukuma": 1238,
      "tsende": 1239,
      "mësuṅ": 1240,
      ".»": 1241,
      "aba": 1242,
      "adzoe": 1243,
      "abaala": 1244,
      "esò": 1245,
      "emana": 1246,
      "nkana": 1247,
      "bëmbë": 1248,
      "bëlè": 1249,
      "bëwogo": 1250,
      "nabas": 1251,
      "amvoe": 1252,
      "bòg": 1253,
      "bavë": 1254,
      "badugan": 1255,
      "sugan": 1256,
      "abede": 1257,
      "akyëbë": 1258,
      "bëngayëbë": 1259,
      "eti": 1260,
      "yenan": 1261,
      "timo": 1262,
      "ebamba": 1263,
      "ndëgëlë": 1264,
      "mëlunga": 1265,
      "kpë": 1266,
      "dzugi": 1267,
      "barnabas": 1268,
      "ekola": 1269,
      "nazaret": 1270,
      "timoteus": 1271,
      "avol": 1272,
      "bama": 1273,
      "eba": 1274,
      "fèd": 1275,
      "mban": 1276,
      "ndzò": 1277,
      "ndza": 1278,
      "oyëm": 1279,
      "and": 1280,
      "anti": 1281,
      "bëyëm": 1282,
      "bëyëgëlë": 1283,
      "bik": 1284,
      "bikë": 1285,
      "bibòò": 1286,
      "siṅ": 1287,
      "labò": 1288,
      "abyandi": 1289,
      "òṅan": 1290,
      "waè": 1291,
      "modo": 1292,
      "mvol": 1293,
      "biayen": 1294,
      "mbe": 1295,
      "fulan": 1296,
      "tòzin": 1297,
      "mias": 1298,
      "miayëbë": 1299,
      "wub": 1300,
      "mëngasò": 1301,
      "kòbògò": 1302,
      "abòd": 1303,
      "awulu": 1304,
      "saulus": 1305,
      "akuli": 1306,
      "angabende": 1307,
      "anganyian": 1308,
      "herodes": 1309,
      "bede": 1310,
      "iim": 1311,
      "nsaṅ": 1312,
      "ong": 1313,
      "tuni": 1314,
      "bëzu": 1315,
      "bëyënë": 1316,
      "bëtisòn": 1317,
      "bëprofet": 1318,
      "aias": 1319,
      "nyag": 1320,
      "gabë": 1321,
      "wasëki": 1322,
      "etòbò": 1323,
      "mins": 1324,
      "minsaṅ": 1325,
      "minziziṅ": 1326,
      "dzidzia": 1327,
      "mëngawog": 1328,
      "ndindim": 1329,
      "kok": 1330,
      "tsidan": 1331,
      "kpiim": 1332,
      "anòṅò": 1333,
      "ndzalan": 1334,
      "atò": 1335,
      "efë": 1336,
      "eka": 1337,
      "mmò": 1338,
      "soan": 1339,
      "taman": 1340,
      "bëlan": 1341,
      "bëyen": 1342,
      "bëdzoo": 1343,
      "miakë": 1344,
      "miyëmë": 1345,
      "ngi": 1346,
      "baan": 1347,
      "bala": 1348,
      "bawoe": 1349,
      "babëlë": 1350,
      "basëki": 1351,
      "mëf": 1352,
      "mëndëm": 1353,
      "mala": 1354,
      "sis": 1355,
      "kindi": 1356,
      "angaku": 1357,
      "angakogëlan": 1358,
      "angatari": 1359,
      "yili": 1360,
      "nts": 1361,
      "abëbë": 1362,
      "tëbëlë": 1363,
      "mbom": 1364,
      "minnom": 1365,
      "miayean": 1366,
      "atye": 1367,
      "fim": 1368,
      "bëbo": 1369,
      "koma": 1370,
      "diṅan": 1371,
      "adzoo": 1372,
      "mëkoe": 1373,
      "dudu": 1374,
      "roma": 1375,
      "kiṅa": 1376,
      "isaias": 1377,
      "amëm": 1378,
      "efesi": 1379,
      "endëgëlë": 1380,
      "mgbag": 1381,
      "mbara": 1382,
      "efunga": 1383,
      "aye": 1384,
      "azia": 1385,
      "edi": 1386,
      "enyii": 1387,
      "edzòdi": 1388,
      "vus": 1389,
      "zeb": 1390,
      "bëntoa": 1391,
      "bëyëṅ": 1392,
      "mibë": 1393,
      "bite": 1394,
      "biandzëki": 1395,
      "bivu": 1396,
      "basili": 1397,
      "mëyaṅan": 1398,
      "yasëki": 1399,
      "mak": 1400,
      "mar": 1401,
      "mavë": 1402,
      "yëgan": 1403,
      "ndòg": 1404,
      "angak": 1405,
      "abëlan": 1406,
      "bëngadi": 1407,
      "mboan": 1408,
      "ulugu": 1409,
      "gëdan": 1410,
      "oni": 1411,
      "zaan": 1412,
      "dëgëlë": 1413,
      "tsigi": 1414,
      "alatar": 1415,
      "gbali": 1416,
      "elias": 1417,
      "atòn": 1418,
      "kindig": 1419,
      "bëbonde": 1420,
      "ayaè": 1421,
      "awaè": 1422,
      "isa": 1423,
      "lug": 1424,
      "lende": 1425,
      "nsò": 1426,
      "oki": 1427,
      "ohë": 1428,
      "rea": 1429,
      "sam": 1430,
      "ani": 1431,
      "bëti": 1432,
      "bëtëlë": 1433,
      "bëzëzë": 1434,
      "ès": 1435,
      "bakad": 1436,
      "badzëṅ": 1437,
      "mëkad": 1438,
      "yëman": 1439,
      "angakom": 1440,
      "abè": 1441,
      "ntsigi": 1442,
      "bëngakui": 1443,
      "biasò": 1444,
      "iṅi": 1445,
      "tòm": 1446,
      "miawog": 1447,
      "atsog": 1448,
      "alaṅan": 1449,
      "onòṅ": 1450,
      "awone": 1451,
      "nkut": 1452,
      "mimbubua": 1453,
      "esil": 1454,
      "ṅwuan": 1455,
      "kpëlë": 1456,
      "isaak": 1457,
      "okia": 1458,
      "adzëṅ": 1459,
      "ayalan": 1460,
      "bog": 1461,
      "ov": 1462,
      "ser": 1463,
      "yom": 1464,
      "òli": 1465,
      "bëdugan": 1466,
      "bëwoa": 1467,
      "mifë": 1468,
      "dzòṅ": 1469,
      "ṅdu": 1470,
      "biwòman": 1471,
      "yag": 1472,
      "yabò": 1473,
      "yazu": 1474,
      "malom": 1475,
      "sik": 1476,
      "angadiṅ": 1477,
      "angasye": 1478,
      "angayëgëlë": 1479,
      "angatëbë": 1480,
      "angakuli": 1481,
      "fëm": 1482,
      "bëngabi": 1483,
      "bëngawu": 1484,
      "bëngadzëṅ": 1485,
      "biabò": 1486,
      "biasëki": 1487,
      "tëgë": 1488,
      "mbëgë": 1489,
      "miadzo": 1490,
      "kòg": 1491,
      "far": 1492,
      "fadi": 1493,
      "dëban": 1494,
      "kani": 1495,
      "dzëṅan": 1496,
      "evi": 1497,
      "vaan": 1498,
      "afaṅ": 1499,
      "këlëg": 1500,
      "atitie": 1501,
      "angabyali": 1502,
      "ṅwuwub": 1503,
      "antiokia": 1504,
      "kokoa": 1505,
      "ṅduan": 1506,
      "aa": 1507,
      "avaa": 1508,
      "azaa": 1509,
      "bamana": 1510,
      "ewòman": 1511,
      "koe": 1512,
      "sal": 1513,
      "wak": 1514,
      "bësò": 1515,
      "bëka": 1516,
      "bëtòbò": 1517,
      "bësa": 1518,
      "amgbali": 1519,
      "mimbim": 1520,
      "biyëm": 1521,
      "bitòm": 1522,
      "sil": 1523,
      "lazu": 1524,
      "laza": 1525,
      "angatòb": 1526,
      "abed": 1527,
      "dili": 1528,
      "abëdë": 1529,
      "bëngadugan": 1530,
      "bëngaloe": 1531,
      "bëngalugu": 1532,
      "enòṅ": 1533,
      "mvëṅ": 1534,
      "banòṅ": 1535,
      "etu": 1536,
      "vëëban": 1537,
      "yoṅ": 1538,
      "tindi": 1539,
      "ebe": 1540,
      "ebuma": 1541,
      "osëki": 1542,
      "osësa": 1543,
      "fòmbò": 1544,
      "ongavë": 1545,
      "engasò": 1546,
      "evòli": 1547,
      "saag": 1548,
      "ayene": 1549,
      "angabed": 1550,
      "ngomëzan": 1551,
      "barëga": 1552,
      "evëgëlë": 1553,
      "lazarus": 1554,
      "aki": 1555,
      "bug": 1556,
      "enyò": 1557,
      "edu": 1558,
      "entoa": 1559,
      "esòò": 1560,
      "fon": 1561,
      "lòṅ": 1562,
      "ontoa": 1563,
      "rëga": 1564,
      "sala": 1565,
      "sole": 1566,
      "tol": 1567,
      "voan": 1568,
      "bëga": 1569,
      "bëza": 1570,
      "bëtan": 1571,
      "bënòni": 1572,
      "bëmvoe": 1573,
      "nas": 1574,
      "mitòbò": 1575,
      "mimana": 1576,
      "mimfëfëg": 1577,
      "ngoe": 1578,
      "ngoge": 1579,
      "bimana": 1580,
      "badi": 1581,
      "basò": 1582,
      "bakòbò": 1583,
      "badiṅ": 1584,
      "odan": 1585,
      "ngada": 1586,
      "sia": 1587,
      "lëb": 1588,
      "bëngawoe": 1589,
      "bëngakòbò": 1590,
      "bëngakogëlan": 1591,
      "mvam": 1592,
      "banyian": 1593,
      "banyiṅ": 1594,
      "mbëg": 1595,
      "miadzëṅ": 1596,
      "yor": 1597,
      "alèd": 1598,
      "alomo": 1599,
      "fas": 1600,
      "tin": 1601,
      "abòòg": 1602,
      "dzalëban": 1603,
      "zingi": 1604,
      "bibè": 1605,
      "tsaman": 1606,
      "zarea": 1607,
      "kaiser": 1608,
      "sezarea": 1609,
      "atsig": 1610,
      "nyëb": 1611,
      "ngadag": 1612,
      "ad": 1613,
      "awoe": 1614,
      "aala": 1615,
      "aligi": 1616,
      "avaè": 1617,
      "ayat": 1618,
      "bui": 1619,
      "ebi": 1620,
      "etëlë": 1621,
      "ekode": 1622,
      "sob": 1623,
      "wakë": 1624,
      "yaman": 1625,
      "zer": 1626,
      "bëtëbë": 1627,
      "nao": 1628,
      "mimkpamaṅ": 1629,
      "ndo": 1630,
      "bile": 1631,
      "biko": 1632,
      "bivol": 1633,
      "biyò": 1634,
      "bakui": 1635,
      "mëvë": 1636,
      "mëhë": 1637,
      "mëzu": 1638,
      "mësis": 1639,
      "yawoge": 1640,
      "madugan": 1641,
      "suan": 1642,
      "angatòbò": 1643,
      "angasubu": 1644,
      "ogan": 1645,
      "ntum": 1646,
      "asug": 1647,
      "abëli": 1648,
      "kub": 1649,
      "banda": 1650,
      "biazu": 1651,
      "minlo": 1652,
      "minkana": 1653,
      "kalan": 1654,
      "kafar": 1655,
      "miatsog": 1656,
      "alugu": 1657,
      "dzëb": 1658,
      "tigëdan": 1659,
      "nyili": 1660,
      "tala": 1661,
      "eben": 1662,
      "ebrea": 1663,
      "nyiṅi": 1664,
      "dzaag": 1665,
      "nkulu": 1666,
      "mbiè": 1667,
      "bingayen": 1668,
      "ndëg": 1669,
      "afyaṅan": 1670,
      "mëbun": 1671,
      "komban": 1672,
      "adiṅi": 1673,
      "abòòlò": 1674,
      "otsaag": 1675,
      "mëlamba": 1676,
      "okëṅ": 1677,
      "mëtiṅ": 1678,
      "minkol": 1679,
      "amias": 1680,
      "ntòban": 1681,
      "ntòlò": 1682,
      "minganòṅ": 1683,
      "edinga": 1684,
      "evie": 1685,
      "kafarnao": 1686,
      "kten": 1687,
      "lodo": 1688,
      "nziziṅ": 1689,
      "osò": 1690,
      "skus": 1691,
      "anamba": 1692,
      "anòn": 1693,
      "bëku": 1694,
      "bëhë": 1695,
      "bëlu": 1696,
      "bësosoo": 1697,
      "bëbòòlò": 1698,
      "mitan": 1699,
      "mindindim": 1700,
      "ndum": 1701,
      "bing": 1702,
      "basye": 1703,
      "balaṅ": 1704,
      "yal": 1705,
      "yaaban": 1706,
      "yayean": 1707,
      "mabëlë": 1708,
      "madiṅ": 1709,
      "matsog": 1710,
      "las": 1711,
      "angayëbë": 1712,
      "abyali": 1713,
      "akele": 1714,
      "ntsogan": 1715,
      "wasò": 1716,
      "wawog": 1717,
      "wadiṅ": 1718,
      "omana": 1719,
      "bëngakad": 1720,
      "bëngalom": 1721,
      "dzongo": 1722,
      "atyan": 1723,
      "alamba": 1724,
      "mbòd": 1725,
      "timi": 1726,
      "titus": 1727,
      "mëngatil": 1728,
      "ndimi": 1729,
      "nyiṅan": 1730,
      "dzòs": 1731,
      "awe": 1732,
      "zitam": 1733,
      "dòkten": 1734,
      "mingabò": 1735,
      "namba": 1736,
      "zaṅa": 1737,
      "evag": 1738,
      "zëzam": 1739,
      "tubu": 1740,
      "nòṅan": 1741,
      "dzogo": 1742,
      "dzogan": 1743,
      "damaskus": 1744,
      "mëbòṅ": 1745,
      "vuman": 1746,
      "obolo": 1747,
      "endëge": 1748,
      "herodès": 1749,
      "minson": 1750,
      "ntsag": 1751,
      "yordan": 1752,
      "ali": 1753,
      "ayedan": 1754,
      "ayòg": 1755,
      "atëg": 1756,
      "eki": 1757,
      "ewu": 1758,
      "ekuu": 1759,
      "fo": 1760,
      "faṅ": 1761,
      "kea": 1762,
      "mwom": 1763,
      "nkala": 1764,
      "nèt": 1765,
      "ok": 1766,
      "ovë": 1767,
      "oyëmë": 1768,
      "saṅan": 1769,
      "wus": 1770,
      "wone": 1771,
      "»,": 1772,
      "anen": 1773,
      "bëdi": 1774,
      "bëkui": 1775,
      "bësili": 1776,
      "bëfudi": 1777,
      "bëdzin": 1778,
      "bit": 1779,
      "biak": 1780,
      "bakogëlan": 1781,
      "basòman": 1782,
      "mëm": 1783,
      "mëna": 1784,
      "mëfub": 1785,
      "mëloṅ": 1786,
      "mënyu": 1787,
      "mëkòg": 1788,
      "masye": 1789,
      "angayëm": 1790,
      "angayaè": 1791,
      "angasoe": 1792,
      "angakag": 1793,
      "abam": 1794,
      "abobolo": 1795,
      "akomo": 1796,
      "biawoge": 1797,
      "minko": 1798,
      "dzib": 1799,
      "atoan": 1800,
      "gëban": 1801,
      "ngòdò": 1802,
      "tibili": 1803,
      "ebè": 1804,
      "ebyandi": 1805,
      "mëngakad": 1806,
      "waandzëki": 1807,
      "elòg": 1808,
      "ongasò": 1809,
      "ebugbu": 1810,
      "dukea": 1811,
      "vaaban": 1812,
      "akuan": 1813,
      "nkòṅ": 1814,
      "tëbëgë": 1815,
      "akalan": 1816,
      "afola": 1817,
      "babënyòṅ": 1818,
      "bëbii": 1819,
      "kaizer": 1820,
      "festus": 1821,
      "nkëlan": 1822,
      "etòbògò": 1823,
      "makaṅ": 1824,
      "marta": 1825,
      "bësadukea": 1826,
      "etuga": 1827,
      "wusnèt": 1828,
      ".'": 1829,
      "asi": 1830,
      "asëm": 1831,
      "ebëm": 1832,
      "edzoo": 1833,
      "fan": 1834,
      "nlugu": 1835,
      "ozu": 1836,
      "okòn": 1837,
      "sende": 1838,
      "soo": 1839,
      "salom": 1840,
      "ungul": 1841,
      "zoa": 1842,
      "anya": 1843,
      "bësatan": 1844,
      "bëkuan": 1845,
      "èn": 1846,
      "mite": 1847,
      "mikë": 1848,
      "ndoman": 1849,
      "bòd": 1850,
      "bibi": 1851,
      "biyë": 1852,
      "biyen": 1853,
      "bidzoe": 1854,
      "bilè": 1855,
      "mëlë": 1856,
      "mëyen": 1857,
      "mëdzaa": 1858,
      "mësaman": 1859,
      "yafulan": 1860,
      "madzëṅ": 1861,
      "laban": 1862,
      "angazu": 1863,
      "angayalan": 1864,
      "angalèè": 1865,
      "lëge": 1866,
      "dig": 1867,
      "wavë": 1868,
      "wayëbë": 1869,
      "bëngak": 1870,
      "bëngakoan": 1871,
      "bëngalèè": 1872,
      "mvug": 1873,
      "mbaṅ": 1874,
      "fumi": 1875,
      "minsili": 1876,
      "minkus": 1877,
      "kal": 1878,
      "miayaṅan": 1879,
      "yoo": 1880,
      "atoban": 1881,
      "farisea": 1882,
      "ayii": 1883,
      "simba": 1884,
      "levi": 1885,
      "mintol": 1886,
      "dzaṅa": 1887,
      "bob": 1888,
      "evus": 1889,
      "nkanga": 1890,
      "nkus": 1891,
      "reas": 1892,
      "mfim": 1893,
      "mëbog": 1894,
      "mëbende": 1895,
      "apol": 1896,
      "batuni": 1897,
      "angayene": 1898,
      "bënganòṅ": 1899,
      "bianyiṅ": 1900,
      "bëloege": 1901,
      "andreas": 1902,
      "minkokòn": 1903,
      "salomon": 1904,
      "adu": 1905,
      "ayaṅan": 1906,
      "avòli": 1907,
      "don": 1908,
      "elè": 1909,
      "elad": 1910,
      "fugu": 1911,
      "kama": 1912,
      "nnë": 1913,
      "nloe": 1914,
      "oz": 1915,
      "oti": 1916,
      "otsi": 1917,
      "okidi": 1918,
      "rab": 1919,
      "samëna": 1920,
      "wo": 1921,
      "won": 1922,
      "yole": 1923,
      "anani": 1924,
      "bëkòbò": 1925,
      "bëgan": 1926,
      "bëlom": 1927,
      "bëvëṅan": 1928,
      "bëzaa": 1929,
      "bëtsigi": 1930,
      "minyii": 1931,
      "miambara": 1932,
      "bihë": 1933,
      "biakë": 1934,
      "bikui": 1935,
      "biakòbò": 1936,
      "bisòò": 1937,
      "bivus": 1938,
      "bab": 1939,
      "mëbi": 1940,
      "mësò": 1941,
      "mëyëm": 1942,
      "mëyian": 1943,
      "mëṅan": 1944,
      "mëntoa": 1945,
      "mësoe": 1946,
      "mëtan": 1947,
      "mësimba": 1948,
      "yadaṅ": 1949,
      "odugan": 1950,
      "mafidi": 1951,
      "suu": 1952,
      "ndòṅ": 1953,
      "sësala": 1954,
      "silas": 1955,
      "lasò": 1956,
      "ladan": 1957,
      "angara": 1958,
      "angakode": 1959,
      "angatil": 1960,
      "angatye": 1961,
      "yii": 1962,
      "akai": 1963,
      "fëdan": 1964,
      "bëngayëm": 1965,
      "bëngawoa": 1966,
      "mvaman": 1967,
      "mvèt": 1968,
      "biadzo": 1969,
      "biayëbë": 1970,
      "ripa": 1971,
      "ritan": 1972,
      "minlaṅ": 1973,
      "osoe": 1974,
      "miadiṅ": 1975,
      "atoṅ": 1976,
      "alò": 1977,
      "endoṅ": 1978,
      "dzëman": 1979,
      "tir": 1980,
      "bëlëdë": 1981,
      "akële": 1982,
      "diṅi": 1983,
      "agripa": 1984,
      "mfum": 1985,
      "awòbò": 1986,
      "tòbògan": 1987,
      "bomë": 1988,
      "tomas": 1989,
      "akulan": 1990,
      "atimi": 1991,
      "bëkama": 1992,
      "minkut": 1993,
      "mvunda": 1994,
      "ngongo": 1995,
      "afubu": 1996,
      "mëtum": 1997,
      "ekokoma": 1998,
      "mbombog": 1999,
      "zebede": 2000,
      "bivuvuman": 2001,
      "tolendoṅ": 2002,
      "bobolo": 2003,
      "ozele": 2004,
      "ananias": 2005,
      "aga": 2006,
      "aza": 2007,
      "adug": 2008,
      "eus": 2009,
      "kanga": 2010,
      "mel": 2011,
      "ns": 2012,
      "nnòni": 2013,
      "obi": 2014,
      "otòbò": 2015,
      "otoan": 2016,
      "oyili": 2017,
      "ste": 2018,
      "tè": 2019,
      "tana": 2020,
      "udi": 2021,
      "wulugu": 2022,
      "wodan": 2023,
      "ze": 2024,
      "zaka": 2025,
      "ëm": 2026,
      "bësoe": 2027,
      "bësòman": 2028,
      "bëkada": 2029,
      "ambëlë": 2030,
      "mika": 2031,
      "milè": 2032,
      "mingënë": 2033,
      "nyoa": 2034,
      "bisò": 2035,
      "bikëlë": 2036,
      "bak": 2037,
      "balugu": 2038,
      "mëtëlë": 2039,
      "mëkëlë": 2040,
      "mëbua": 2041,
      "yadzo": 2042,
      "yatye": 2043,
      "odiṅi": 2044,
      "mabòòlò": 2045,
      "mabende": 2046,
      "ngala": 2047,
      "yenë": 2048,
      "yëdan": 2049,
      "sidon": 2050,
      "angadzëṅ": 2051,
      "abug": 2052,
      "akoan": 2053,
      "dim": 2054,
      "ntot": 2055,
      "òṅò": 2056,
      "wayen": 2057,
      "watsig": 2058,
      "asubu": 2059,
      "omama": 2060,
      "ombòg": 2061,
      "olan": 2062,
      "bëngalaṅ": 2063,
      "biawog": 2064,
      "biasye": 2065,
      "biatil": 2066,
      "ngëṅ": 2067,
      "rias": 2068,
      "riot": 2069,
      "kariot": 2070,
      "dzimbi": 2071,
      "hëbë": 2072,
      "yopa": 2073,
      "yonas": 2074,
      "atu": 2075,
      "atala": 2076,
      "alaṅ": 2077,
      "tili": 2078,
      "mëngabò": 2079,
      "ndil": 2080,
      "dëg": 2081,
      "asoan": 2082,
      "kanda": 2083,
      "zil": 2084,
      "elon": 2085,
      "mfufubu": 2086,
      "mimbè": 2087,
      "bingabò": 2088,
      "engabò": 2089,
      "loeban": 2090,
      "loman": 2091,
      "eva": 2092,
      "evoe": 2093,
      "evol": 2094,
      "fidigi": 2095,
      "nkom": 2096,
      "nkyè": 2097,
      "tsogan": 2098,
      "akada": 2099,
      "afèd": 2100,
      "kpè": 2101,
      "iskariot": 2102,
      "lëdëgë": 2103,
      "abii": 2104,
      "daṅa": 2105,
      "vie": 2106,
      "angabede": 2107,
      "biege": 2108,
      "nyiina": 2109,
      "aluman": 2110,
      "bëmbarëga": 2111,
      "ntëbë": 2112,
      "mëlug": 2113,
      "bëngabam": 2114,
      "mëkëṅ": 2115,
      "filipus": 2116,
      "mëkud": 2117,
      "atsidan": 2118,
      "bëvëë": 2119,
      "bëyii": 2120,
      "samaria": 2121,
      "ekadi": 2122,
      "mbombòg": 2123,
      "silba": 2124,
      "bikokoma": 2125,
      "otitie": 2126,
      "otsida": 2127,
      "rabbi": 2128,
      "akaia": 2129,
      "melki": 2130,
      "stefan": 2131,
      "zakarias": 2132,
      "ntotomama": 2133,
      "ntotomamaa": 2134,
      "av": 2135,
      "ayègè": 2136,
      "ayaan": 2137,
      "adzèè": 2138,
      "adzala": 2139,
      "adzëṅë": 2140,
      "ayoṅ": 2141,
      "eza": 2142,
      "fòg": 2143,
      "feli": 2144,
      "gda": 2145,
      "gbëm": 2146,
      "kog": 2147,
      "kpa": 2148,
      "lam": 2149,
      "me": 2150,
      "nl": 2151,
      "nò": 2152,
      "nkan": 2153,
      "ndzòṅ": 2154,
      "nladan": 2155,
      "nloman": 2156,
      "oku": 2157,
      "onyu": 2158,
      "toe": 2159,
      "zo": 2160,
      "antëlë": 2161,
      "ania": 2162,
      "andaman": 2163,
      "bëkad": 2164,
      "bënyiṅ": 2165,
      "bëbaala": 2166,
      "bëkòbògò": 2167,
      "miabë": 2168,
      "mihë": 2169,
      "miyëbë": 2170,
      "midugan": 2171,
      "mianòṅ": 2172,
      "miwogo": 2173,
      "nya": 2174,
      "ṅë": 2175,
      "bindi": 2176,
      "biabëlë": 2177,
      "bivoe": 2178,
      "bikag": 2179,
      "bibëga": 2180,
      "bali": 2181,
      "bada": 2182,
      "balom": 2183,
      "batsog": 2184,
      "bayedan": 2185,
      "bawulu": 2186,
      "batoṅ": 2187,
      "basug": 2188,
      "mëvòg": 2189,
      "mëzen": 2190,
      "mëyëmë": 2191,
      "mëndëg": 2192,
      "yakë": 2193,
      "yalod": 2194,
      "mayëbë": 2195,
      "yedëgan": 2196,
      "susu": 2197,
      "angâ": 2198,
      "angasili": 2199,
      "angabòòlò": 2200,
      "angafubu": 2201,
      "tesal": 2202,
      "abo": 2203,
      "akp": 2204,
      "akoe": 2205,
      "akaman": 2206,
      "akèè": 2207,
      "bëngatòbò": 2208,
      "bëngatele": 2209,
      "bëngatil": 2210,
      "bëngatye": 2211,
      "bëngavëṅan": 2212,
      "bëngasubu": 2213,
      "tëm": 2214,
      "etòg": 2215,
      "liṅan": 2216,
      "minnam": 2217,
      "mindzòṅ": 2218,
      "tòbëgan": 2219,
      "miasò": 2220,
      "miazu": 2221,
      "atòṅ": 2222,
      "ngòmëna": 2223,
      "endan": 2224,
      "zuṅa": 2225,
      "fiba": 2226,
      "ebom": 2227,
      "ebul": 2228,
      "mëngayi": 2229,
      "mëngalom": 2230,
      "ndib": 2231,
      "ndigi": 2232,
      "mintëm": 2233,
      "tsigëban": 2234,
      "bingawog": 2235,
      "mëkaban": 2236,
      "alaban": 2237,
      "akuu": 2238,
      "tum": 2239,
      "babil": 2240,
      "akalëga": 2241,
      "elisab": 2242,
      "angavëlë": 2243,
      "tyege": 2244,
      "ngob": 2245,
      "adid": 2246,
      "vòligi": 2247,
      "toṅo": 2248,
      "kaifas": 2249,
      "afulan": 2250,
      "angëdëg": 2251,
      "mëkëg": 2252,
      "bësombòg": 2253,
      "betania": 2254,
      "miṅyene": 2255,
      "esòlò": 2256,
      "bikabëli": 2257,
      "miasaṅan": 2258,
      "zebul": 2259,
      "onika": 2260,
      "ovug": 2261,
      "eduṅ": 2262,
      "adam": 2263,
      "mbòdòg": 2264,
      "bitun": 2265,
      "felis": 2266,
      "tesalonika": 2267,
      "elisabet": 2268,
      "?»": 2269,
      "ate": 2270,
      "ayanga": 2271,
      "alig": 2272,
      "adzaè": 2273,
      "adzogo": 2274,
      "edzo": 2275,
      "ekò": 2276,
      "ehë": 2277,
      "ebag": 2278,
      "he": 2279,
      "kr": 2280,
      "kab": 2281,
      "kefas": 2282,
      "mfëg": 2283,
      "ne": 2284,
      "noe": 2285,
      "ond": 2286,
      "owulu": 2287,
      "oyon": 2288,
      "sodo": 2289,
      "sede": 2290,
      "tra": 2291,
      "antala": 2292,
      "bëwog": 2293,
      "bëtele": 2294,
      "bëtari": 2295,
      "bëlugu": 2296,
      "bënyian": 2297,
      "bëngòn": 2298,
      "bëloṅ": 2299,
      "bëvogolo": 2300,
      "bëtsogo": 2301,
      "bëkuu": 2302,
      "bëyom": 2303,
      "èègè": 2304,
      "mië": 2305,
      "midi": 2306,
      "miyen": 2307,
      "miza": 2308,
      "mikogëlan": 2309,
      "mimbëgë": 2310,
      "mivaaban": 2311,
      "mimfum": 2312,
      "ngan": 2313,
      "ngamëna": 2314,
      "bivë": 2315,
      "biamana": 2316,
      "biakad": 2317,
      "bindëgëlë": 2318,
      "bikpëlë": 2319,
      "bisoo": 2320,
      "bawoge": 2321,
      "balèè": 2322,
      "bakyëbë": 2323,
      "mëny": 2324,
      "mëfë": 2325,
      "mëwu": 2326,
      "mëyënë": 2327,
      "mëtil": 2328,
      "yakui": 2329,
      "yakòb": 2330,
      "mat": 2331,
      "maki": 2332,
      "mayaṅan": 2333,
      "malod": 2334,
      "magda": 2335,
      "sum": 2336,
      "sii": 2337,
      "siria": 2338,
      "angasus": 2339,
      "angabye": 2340,
      "angalëdë": 2341,
      "angalod": 2342,
      "angawulu": 2343,
      "angatoban": 2344,
      "angasigi": 2345,
      "lënga": 2346,
      "fëb": 2347,
      "fëfë": 2348,
      "digi": 2349,
      "wayëgëlë": 2350,
      "walod": 2351,
      "asub": 2352,
      "bëngaku": 2353,
      "bëngasili": 2354,
      "bëngalig": 2355,
      "kulëban": 2356,
      "biayaṅan": 2357,
      "biadzaè": 2358,
      "eta": 2359,
      "etoban": 2360,
      "rinti": 2361,
      "minsò": 2362,
      "miabi": 2363,
      "miadi": 2364,
      "miawoge": 2365,
      "esand": 2366,
      "alesand": 2367,
      "ras": 2368,
      "zut": 2369,
      "taan": 2370,
      "tali": 2371,
      "ebulu": 2372,
      "mëngakë": 2373,
      "leem": 2374,
      "ndie": 2375,
      "kadan": 2376,
      "kor": 2377,
      "komë": 2378,
      "korinti": 2379,
      "dëga": 2380,
      "eme": 2381,
      "mintoa": 2382,
      "mintud": 2383,
      "mbògò": 2384,
      "awoa": 2385,
      "awulugu": 2386,
      "awonòṅ": 2387,
      "tòbògò": 2388,
      "mingakë": 2389,
      "nkuan": 2390,
      "mbimbi": 2391,
      "bingasò": 2392,
      "bingayedan": 2393,
      "engatigëdan": 2394,
      "mëkogëlan": 2395,
      "saala": 2396,
      "silisia": 2397,
      "yandzëki": 2398,
      "nkè": 2399,
      "nkomo": 2400,
      "bidim": 2401,
      "kpèè": 2402,
      "nsëmë": 2403,
      "dzugulu": 2404,
      "awoge": 2405,
      "mëbug": 2406,
      "angavëṅan": 2407,
      "angabam": 2408,
      "mvie": 2409,
      "bëkèè": 2410,
      "bënganyian": 2411,
      "ngoṅ": 2412,
      "angambara": 2413,
      "kònò": 2414,
      "bedëban": 2415,
      "mësugan": 2416,
      "mbòòlò": 2417,
      "yakobus": 2418,
      "bibòòg": 2419,
      "bësama": 2420,
      "dzòdiban": 2421,
      "minkaṅ": 2422,
      "betleem": 2423,
      "miṅyon": 2424,
      "esòg": 2425,
      "bëluugu": 2426,
      "apollos": 2427,
      "fuguzu": 2428,
      "woaban": 2429,
      "melkisede": 2430,
      "babilon": 2431,
      "sodoma": 2432,
      "melkisedek": 2433,
      "aan": 2434,
      "avòg": 2435,
      "adzoge": 2436,
      "asie": 2437,
      "bel": 2438,
      "bamgbali": 2439,
      "ey": 2440,
      "ebòò": 2441,
      "ezaa": 2442,
      "enyë": 2443,
      "ik": 2444,
      "kaban": 2445,
      "kamëna": 2446,
      "men": 2447,
      "mon": 2448,
      "mambara": 2449,
      "neli": 2450,
      "oben": 2451,
      "onyian": 2452,
      "ovol": 2453,
      "per": 2454,
      "soṅ": 2455,
      "tr": 2456,
      "ves": 2457,
      "wakòbò": 2458,
      "wakad": 2459,
      "anna": 2460,
      "anaṅ": 2461,
      "andëgëlë": 2462,
      "bëmë": 2463,
      "bëki": 2464,
      "bëdë": 2465,
      "bëdzoge": 2466,
      "bëtoan": 2467,
      "bëvaa": 2468,
      "bëdzëṅë": 2469,
      "bëlodo": 2470,
      "bëtubu": 2471,
      "bëwusnèt": 2472,
      "bëdiṅi": 2473,
      "midzie": 2474,
      "mitëlë": 2475,
      "miyënë": 2476,
      "mivëṅan": 2477,
      "miakad": 2478,
      "nyam": 2479,
      "nyaa": 2480,
      "bifu": 2481,
      "biwog": 2482,
      "bibo": 2483,
      "bintoa": 2484,
      "biyanga": 2485,
      "biabende": 2486,
      "biakogëlan": 2487,
      "bakam": 2488,
      "bayalan": 2489,
      "babè": 2490,
      "mëw": 2491,
      "mëyi": 2492,
      "mëkui": 2493,
      "mësòṅ": 2494,
      "mëbòò": 2495,
      "mënen": 2496,
      "mëtyan": 2497,
      "mëtsogo": 2498,
      "yaa": 2499,
      "yavë": 2500,
      "odis": 2501,
      "masili": 2502,
      "madaṅ": 2503,
      "matsidan": 2504,
      "yëbe": 2505,
      "sip": 2506,
      "sias": 2507,
      "lakë": 2508,
      "lasëki": 2509,
      "laodis": 2510,
      "angadi": 2511,
      "angadu": 2512,
      "angadzoge": 2513,
      "angakuan": 2514,
      "angalig": 2515,
      "angayon": 2516,
      "angavòli": 2517,
      "angafèd": 2518,
      "angakani": 2519,
      "tende": 2520,
      "aben": 2521,
      "abbas": 2522,
      "akam": 2523,
      "wabòòlò": 2524,
      "waluman": 2525,
      "omban": 2526,
      "olam": 2527,
      "bëngasog": 2528,
      "ene": 2529,
      "biadaṅ": 2530,
      "mbyalan": 2531,
      "fuu": 2532,
      "dzili": 2533,
      "osama": 2534,
      "miatsig": 2535,
      "miayëgan": 2536,
      "hëlë": 2537,
      "yëbëgë": 2538,
      "aloṅ": 2539,
      "wogan": 2540,
      "gële": 2541,
      "endaman": 2542,
      "dzëban": 2543,
      "ondzi": 2544,
      "ebugu": 2545,
      "mëngavë": 2546,
      "angabëlan": 2547,
      "emgbëm": 2548,
      "bëbëgan": 2549,
      "engamana": 2550,
      "lòbò": 2551,
      "mingabi": 2552,
      "mingakui": 2553,
      "ongayen": 2554,
      "ongazu": 2555,
      "ongalom": 2556,
      "misaala": 2557,
      "bingabi": 2558,
      "bingayi": 2559,
      "bingavë": 2560,
      "engadzaṅ": 2561,
      "mëkyaè": 2562,
      "paf": 2563,
      "mfugu": 2564,
      "edòg": 2565,
      "yandaman": 2566,
      "nkoe": 2567,
      "nkaṅan": 2568,
      "awuu": 2569,
      "tuud": 2570,
      "anyuu": 2571,
      "atii": 2572,
      "atil": 2573,
      "miandzë": 2574,
      "awomo": 2575,
      "batsende": 2576,
      "hili": 2577,
      "zamgbala": 2578,
      "bëngamgbali": 2579,
      "mëwogo": 2580,
      "barabbas": 2581,
      "yono": 2582,
      "mbubua": 2583,
      "nkot": 2584,
      "ekye": 2585,
      "mëlam": 2586,
      "bëlòbò": 2587,
      "miakoan": 2588,
      "mëtè": 2589,
      "sugu": 2590,
      "akònò": 2591,
      "afëdan": 2592,
      "alëdëgë": 2593,
      "bëyidi": 2594,
      "mingungul": 2595,
      "dzibigi": 2596,
      "ndzaṅan": 2597,
      "miṅi": 2598,
      "abadan": 2599,
      "abaag": 2600,
      "ntsendan": 2601,
      "ndondòg": 2602,
      "mëlëbëga": 2603,
      "mikalëga": 2604,
      "yenëban": 2605,
      "zilngan": 2606,
      "evaè": 2607,
      "stefanus": 2608,
      "nyaag": 2609,
      "abobod": 2610,
      "akpë": 2611,
      "kreta": 2612,
      "ondanga": 2613,
      "korneli": 2614,
      "mbimbiṅ": 2615,
      "belzebul": 2616,
      "laodisea": 2617,
      "kornelius": 2618,
      ",-": 2619,
      "?'": 2620,
      "ah": 2621,
      "ay": 2622,
      "abia": 2623,
      "aris": 2624,
      "afudi": 2625,
      "avogolo": 2626,
      "adzòdi": 2627,
      "ayom": 2628,
      "atëgë": 2629,
      "afadi": 2630,
      "adzaag": 2631,
      "bam": 2632,
      "besya": 2633,
      "bulu": 2634,
      "ber": 2635,
      "bombo": 2636,
      "de": 2637,
      "emb": 2638,
      "ekui": 2639,
      "ekëlë": 2640,
      "evëṅan": 2641,
      "ewoge": 2642,
      "esubu": 2643,
      "ezëzam": 2644,
      "fus": 2645,
      "gai": 2646,
      "kos": 2647,
      "kòṅan": 2648,
      "moman": 2649,
      "mmiè": 2650,
      "nsa": 2651,
      "otë": 2652,
      "okòbò": 2653,
      "okui": 2654,
      "obo": 2655,
      "obye": 2656,
      "otu": 2657,
      "otëlë": 2658,
      "onyii": 2659,
      "owoa": 2660,
      "owogo": 2661,
      "ongënë": 2662,
      "pris": 2663,
      "son": 2664,
      "stra": 2665,
      "tsë": 2666,
      "tsat": 2667,
      "togan": 2668,
      "unda": 2669,
      "vaman": 2670,
      "vogëlan": 2671,
      "wolo": 2672,
      "wambara": 2673,
      "andë": 2674,
      "antëm": 2675,
      "bënt": 2676,
      "bëdzie": 2677,
      "bënyii": 2678,
      "bëtsig": 2679,
      "bëkodo": 2680,
      "bëyanga": 2681,
      "bësubu": 2682,
      "bëkodeban": 2683,
      "bëngënë": 2684,
      "bëdzaa": 2685,
      "bëtaman": 2686,
      "bëdudu": 2687,
      "bëtoṅo": 2688,
      "nai": 2689,
      "nali": 2690,
      "natana": 2691,
      "miab": 2692,
      "misò": 2693,
      "mizu": 2694,
      "miabëlë": 2695,
      "mimf": 2696,
      "mibòò": 2697,
      "mikëlë": 2698,
      "mitsogo": 2699,
      "midiṅan": 2700,
      "miṅwuwub": 2701,
      "nyami": 2702,
      "ṅe": 2703,
      "ṅwoe": 2704,
      "ṅnòni": 2705,
      "ṅhëbë": 2706,
      "ndoṅ": 2707,
      "binda": 2708,
      "biwu": 2709,
      "bitòbò": 2710,
      "biaku": 2711,
      "bitan": 2712,
      "baè": 2713,
      "bawu": 2714,
      "batele": 2715,
      "batsig": 2716,
      "bakodo": 2717,
      "baluman": 2718,
      "babed": 2719,
      "babede": 2720,
      "batibili": 2721,
      "mëta": 2722,
      "mëkòbò": 2723,
      "mëligi": 2724,
      "mëkuli": 2725,
      "mëwòbò": 2726,
      "mëkomë": 2727,
      "mëmvie": 2728,
      "yabë": 2729,
      "yasye": 2730,
      "odi": 2731,
      "mabë": 2732,
      "maku": 2733,
      "makyëbë": 2734,
      "gala": 2735,
      "sigan": 2736,
      "latyan": 2737,
      "angakomëzan": 2738,
      "angatoṅ": 2739,
      "angalad": 2740,
      "angatuni": 2741,
      "yia": 2742,
      "ter": 2743,
      "temis": 2744,
      "abama": 2745,
      "lëbë": 2746,
      "lëgan": 2747,
      "ako": 2748,
      "akègè": 2749,
      "akala": 2750,
      "dian": 2751,
      "wawoe": 2752,
      "ombog": 2753,
      "oles": 2754,
      "bëngasëm": 2755,
      "bëngayëgëlë": 2756,
      "bëngatëbë": 2757,
      "bëngatari": 2758,
      "bëngakom": 2759,
      "bëngayedan": 2760,
      "bëngakòn": 2761,
      "bëngatag": 2762,
      "bëngakag": 2763,
      "bëngaduuban": 2764,
      "bëngalum": 2765,
      "bëngasuan": 2766,
      "mvë": 2767,
      "mvaṅ": 2768,
      "biabòòlò": 2769,
      "biawulu": 2770,
      "biayanga": 2771,
      "etan": 2772,
      "ngëlë": 2773,
      "listra": 2774,
      "oas": 2775,
      "minlaṅëdan": 2776,
      "minsum": 2777,
      "mbëgan": 2778,
      "vëg": 2779,
      "vëë": 2780,
      "miag": 2781,
      "miadaṅ": 2782,
      "miadzaè": 2783,
      "kòl": 2784,
      "hëg": 2785,
      "ègi": 2786,
      "yëbëgan": 2787,
      "alòṅ": 2788,
      "alèè": 2789,
      "alaṅa": 2790,
      "fag": 2791,
      "fala": 2792,
      "hali": 2793,
      "dzëm": 2794,
      "yobo": 2795,
      "luu": 2796,
      "mëngabi": 2797,
      "mëngadzo": 2798,
      "mëngazu": 2799,
      "mëngatòb": 2800,
      "lena": 2801,
      "abanda": 2802,
      "bëbama": 2803,
      "akëë": 2804,
      "waandaman": 2805,
      "waanyëb": 2806,
      "waandëgëlë": 2807,
      "asama": 2808,
      "asole": 2809,
      "bëbëdë": 2810,
      "lòb": 2811,
      "mingayi": 2812,
      "mingayen": 2813,
      "mingayëm": 2814,
      "babëlan": 2815,
      "ongakòbò": 2816,
      "tsid": 2817,
      "mimbombog": 2818,
      "bingayëm": 2819,
      "bingatye": 2820,
      "engakë": 2821,
      "engakui": 2822,
      "evaa": 2823,
      "eyëṅ": 2824,
      "tuṅ": 2825,
      "tëbëgan": 2826,
      "akaè": 2827,
      "tarigi": 2828,
      "tilban": 2829,
      "abie": 2830,
      "abimi": 2831,
      "vin": 2832,
      "filipi": 2833,
      "mvumvug": 2834,
      "tsam": 2835,
      "tsas": 2836,
      "binanga": 2837,
      "soeban": 2838,
      "vòd": 2839,
      "bëngayili": 2840,
      "atòbògò": 2841,
      "mëdzoo": 2842,
      "dzuga": 2843,
      "ekabëli": 2844,
      "bëngabui": 2845,
      "bëngabende": 2846,
      "bëngabed": 2847,
      "mvòd": 2848,
      "adaṅa": 2849,
      "miakam": 2850,
      "mëkut": 2851,
      "afëdë": 2852,
      "mëngamana": 2853,
      "artemis": 2854,
      "nkëan": 2855,
      "abaa": 2856,
      "bëmbëlë": 2857,
      "etibili": 2858,
      "siṅi": 2859,
      "minsanga": 2860,
      "ayenë": 2861,
      "bitelëge": 2862,
      "markus": 2863,
      "bëtibili": 2864,
      "bëkarëga": 2865,
      "akila": 2866,
      "bugi": 2867,
      "mëngatilban": 2868,
      "foṅan": 2869,
      "bësiligi": 2870,
      "biyëyëm": 2871,
      "aduu": 2872,
      "atoṅo": 2873,
      "zeyaṅ": 2874,
      "bakele": 2875,
      "òṅòlò": 2876,
      "kpaam": 2877,
      "nkanan": 2878,
      "ekòsaṅ": 2879,
      "miëëṅ": 2880,
      "makit": 2881,
      "magdalena": 2882,
      "fëfël": 2883,
      "bësamaritan": 2884,
      "enyënyam": 2885,
      "ikoni": 2886,
      "troas": 2887,
      "mëwola": 2888,
      "emboe": 2889,
      "nsalan": 2890,
      "otëtëg": 2891,
      "tsëtsat": 2892,
      "',": 2893,
      "alan": 2894,
      "adza": 2895,
      "aar": 2896,
      "afòmbò": 2897,
      "ayoo": 2898,
      "bendëge": 2899,
      "do": 2900,
      "eku": 2901,
      "engë": 2902,
      "eyëm": 2903,
      "eyòg": 2904,
      "edzaṅa": 2905,
      "epaf": 2906,
      "fog": 2907,
      "fen": 2908,
      "fyal": 2909,
      "itali": 2910,
      "kè": 2911,
      "kye": 2912,
      "kèè": 2913,
      "lòg": 2914,
      "mbarëga": 2915,
      "nkòb": 2916,
      "nnòṅò": 2917,
      "nkomëzan": 2918,
      "nlug": 2919,
      "op": 2920,
      "oyen": 2921,
      "owoe": 2922,
      "okëlë": 2923,
      "obaala": 2924,
      "okuu": 2925,
      "po": 2926,
      "pol": 2927,
      "ran": 2928,
      "san": 2929,
      "sai": 2930,
      "tui": 2931,
      "vog": 2932,
      "vom": 2933,
      "woan": 2934,
      "wonë": 2935,
      "wamana": 2936,
      "ëge": 2937,
      "òdi": 2938,
      "anus": 2939,
      "bëh": 2940,
      "bëdzëṅ": 2941,
      "bëkogëlan": 2942,
      "bëtye": 2943,
      "bëligi": 2944,
      "bëzaag": 2945,
      "bëlad": 2946,
      "bëduuban": 2947,
      "bëyal": 2948,
      "bëndoman": 2949,
      "èl": 2950,
      "miziṅ": 2951,
      "miwoe": 2952,
      "misye": 2953,
      "miakui": 2954,
      "mivòg": 2955,
      "mitsog": 2956,
      "mitoan": 2957,
      "miyaan": 2958,
      "mivaa": 2959,
      "mivogolo": 2960,
      "midzëṅë": 2961,
      "miyëgan": 2962,
      "miasug": 2963,
      "mimfim": 2964,
      "mindondòg": 2965,
      "ngungul": 2966,
      "dzuban": 2967,
      "nyum": 2968,
      "ṅi": 2969,
      "ndoe": 2970,
      "bisi": 2971,
      "biabë": 2972,
      "bizu": 2973,
      "biakui": 2974,
      "bivòg": 2975,
      "bianòṅ": 2976,
      "bibëm": 2977,
      "bitam": 2978,
      "bibëgë": 2979,
      "bitsogo": 2980,
      "bidzuga": 2981,
      "bilòg": 2982,
      "badzoe": 2983,
      "batòbò": 2984,
      "balëdë": 2985,
      "babaala": 2986,
      "bakòb": 2987,
      "babòòlò": 2988,
      "bakuan": 2989,
      "bavogolo": 2990,
      "bayon": 2991,
      "batag": 2992,
      "babende": 2993,
      "basiṅ": 2994,
      "mëv": 2995,
      "mëbë": 2996,
      "mëba": 2997,
      "mëyedan": 2998,
      "mëfe": 2999,
      "mëdudu": 3000,
      "mënyiṅi": 3001,
      "mëfidigi": 3002,
      "yakad": 3003,
      "yaluman": 3004,
      "yayene": 3005,
      "oda": 3006,
      "mabëbë": 3007,
      "madu": 3008,
      "matari": 3009,
      "mabaala": 3010,
      "mayedan": 3011,
      "makaman": 3012,
      "yes": 3013,
      "yeri": 3014,
      "yebe": 3015,
      "yëg": 3016,
      "sul": 3017,
      "ndòmbò": 3018,
      "sëlan": 3019,
      "sir": 3020,
      "sius": 3021,
      "kila": 3022,
      "lalod": 3023,
      "angawoe": 3024,
      "angakam": 3025,
      "angayedan": 3026,
      "angaloṅ": 3027,
      "angasie": 3028,
      "angaduuban": 3029,
      "angawòbò": 3030,
      "angalòṅ": 3031,
      "yit": 3032,
      "abodo": 3033,
      "lëg": 3034,
      "akom": 3035,
      "akol": 3036,
      "akama": 3037,
      "akag": 3038,
      "akun": 3039,
      "dia": 3040,
      "wabëlë": 3041,
      "wabad": 3042,
      "wadzib": 3043,
      "asus": 3044,
      "asuan": 3045,
      "ustus": 3046,
      "omolo": 3047,
      "bëngadug": 3048,
      "bëngadzie": 3049,
      "bëngasye": 3050,
      "bëngabie": 3051,
      "bëngakodo": 3052,
      "bëngatoṅ": 3053,
      "bëngalaban": 3054,
      "ugëlan": 3055,
      "biawu": 3056,
      "biadugan": 3057,
      "bialod": 3058,
      "biayedan": 3059,
      "tëb": 3060,
      "etus": 3061,
      "mbul": 3062,
      "ngëm": 3063,
      "fuban": 3064,
      "das": 3065,
      "sòndò": 3066,
      "mandzë": 3067,
      "manyiṅ": 3068,
      "minaṅ": 3069,
      "minsaṅa": 3070,
      "minzëzam": 3071,
      "kaè": 3072,
      "kabad": 3073,
      "mbëlë": 3074,
      "osye": 3075,
      "miadugan": 3076,
      "mialëdë": 3077,
      "miabie": 3078,
      "mialugu": 3079,
      "miatoan": 3080,
      "yoan": 3081,
      "ataman": 3082,
      "atsigi": 3083,
      "atsam": 3084,
      "atsende": 3085,
      "alfe": 3086,
      "yëmban": 3087,
      "rao": 3088,
      "farao": 3089,
      "mbòm": 3090,
      "ngòbinda": 3091,
      "tigi": 3092,
      "zuli": 3093,
      "tad": 3094,
      "fimi": 3095,
      "mëngaku": 3096,
      "mëngakòbò": 3097,
      "mëngadiṅ": 3098,
      "mëngakui": 3099,
      "mëngasili": 3100,
      "mëngatoban": 3101,
      "abòban": 3102,
      "gidi": 3103,
      "bëboe": 3104,
      "bëbèè": 3105,
      "emus": 3106,
      "asogolo": 3107,
      "kodemus": 3108,
      "fòmbëgan": 3109,
      "sogolo": 3110,
      "mingavë": 3111,
      "mingayëbë": 3112,
      "mingayègè": 3113,
      "mingakam": 3114,
      "ongabò": 3115,
      "ongabi": 3116,
      "ongadzo": 3117,
      "ongadiṅ": 3118,
      "bingayëbë": 3119,
      "bingawu": 3120,
      "bingaligi": 3121,
      "engakomban": 3122,
      "lomo": 3123,
      "evòg": 3124,
      "evolo": 3125,
      "sar": 3126,
      "asòman": 3127,
      "yanyëb": 3128,
      "zëzaṅ": 3129,
      "bum": 3130,
      "nkoan": 3131,
      "nkoman": 3132,
      "awum": 3133,
      "awuban": 3134,
      "gele": 3135,
      "akarëga": 3136,
      "afyè": 3137,
      "aṅëban": 3138,
      "anòṅëban": 3139,
      "nkabag": 3140,
      "mëbom": 3141,
      "angabombo": 3142,
      "mviè": 3143,
      "batye": 3144,
      "bëkaban": 3145,
      "minkum": 3146,
      "bëbòòg": 3147,
      "uṅu": 3148,
      "anganaṅ": 3149,
      "avëëban": 3150,
      "akodeban": 3151,
      "bëngambara": 3152,
      "alumbu": 3153,
      "mazuzu": 3154,
      "tsag": 3155,
      "tsendë": 3156,
      "vologo": 3157,
      "mboṅ": 3158,
      "bèan": 3159,
      "yangâ": 3160,
      "angamëm": 3161,
      "loṅëban": 3162,
      "ṅyëbe": 3163,
      "ṅyënan": 3164,
      "ahëbë": 3165,
      "obòban": 3166,
      "obògò": 3167,
      "bëkëë": 3168,
      "nkodan": 3169,
      "ekanga": 3170,
      "ekoa": 3171,
      "bëlòb": 3172,
      "bësoan": 3173,
      "mëtom": 3174,
      "tarkus": 3175,
      "tarsis": 3176,
      "nikodemus": 3177,
      "arka": 3178,
      "samaritan": 3179,
      "betsai": 3180,
      "adzoege": 3181,
      "bikye": 3182,
      "ayedëgan": 3183,
      "angakèè": 3184,
      "abèan": 3185,
      "bëwoaga": 3186,
      "edud": 3187,
      "mëvëṅ": 3188,
      "ewumu": 3189,
      "biakaṅ": 3190,
      "anyaag": 3191,
      "biyëyëg": 3192,
      "bëlomo": 3193,
      "bëloṅo": 3194,
      "mëwuban": 3195,
      "matt": 3196,
      "siprus": 3197,
      "ayol": 3198,
      "aristarkus": 3199,
      "gaius": 3200,
      "bëntala": 3201,
      "mëtaag": 3202,
      "mëkomëṅa": 3203,
      "galati": 3204,
      "ikonium": 3205,
      "aaron": 3206,
      "italien": 3207,
      "polis": 3208,
      "vogolan": 3209,
      "yeriko": 3210,
      "mbulug": 3211,
      "alfeus": 3212,
      "tigibi": 3213,
      "tsendëgan": 3214,
      "betsaida": 3215,
      "ava": 3216,
      "asigi": 3217,
      "adzu": 3218,
      "atòb": 3219,
      "adzaa": 3220,
      "ayag": 3221,
      "alëb": 3222,
      "boa": 3223,
      "bomo": 3224,
      "bambara": 3225,
      "besoa": 3226,
      "bamëm": 3227,
      "beme": 3228,
      "der": 3229,
      "ez": 3230,
      "ebë": 3231,
      "etë": 3232,
      "ezu": 3233,
      "eon": 3234,
      "eyalan": 3235,
      "ekob": 3236,
      "engënë": 3237,
      "ekòbògò": 3238,
      "ekpëlë": 3239,
      "ekòg": 3240,
      "emëm": 3241,
      "esusu": 3242,
      "emvaṅ": 3243,
      "enyum": 3244,
      "fol": 3245,
      "fòṅòlò": 3246,
      "gè": 3247,
      "kla": 3248,
      "kaṅ": 3249,
      "letus": 3250,
      "mè": 3251,
      "mbar": 3252,
      "nsye": 3253,
      "nsili": 3254,
      "nana": 3255,
      "nlëdë": 3256,
      "ndzin": 3257,
      "ndzëṅan": 3258,
      "osi": 3259,
      "olë": 3260,
      "oka": 3261,
      "oza": 3262,
      "okad": 3263,
      "okogëlan": 3264,
      "odzoge": 3265,
      "osòò": 3266,
      "ofudi": 3267,
      "ozaag": 3268,
      "obëgë": 3269,
      "odzalëban": 3270,
      "oyoo": 3271,
      "pam": 3272,
      "pus": 3273,
      "ru": 3274,
      "rë": 3275,
      "sas": 3276,
      "syean": 3277,
      "tiṅ": 3278,
      "tama": 3279,
      "tro": 3280,
      "vuma": 3281,
      "vanus": 3282,
      "wakòn": 3283,
      "wamias": 3284,
      "wakulan": 3285,
      "yamana": 3286,
      "ëgan": 3287,
      "òb": 3288,
      "andzë": 3289,
      "anyaṅ": 3290,
      "anyëb": 3291,
      "annas": 3292,
      "bëf": 3293,
      "bësu": 3294,
      "bëban": 3295,
      "bëtë": 3296,
      "bëdzo": 3297,
      "bëdzë": 3298,
      "bëkoan": 3299,
      "bëlaṅ": 3300,
      "bëkomëzan": 3301,
      "bësigi": 3302,
      "bëkuli": 3303,
      "bënyie": 3304,
      "bësie": 3305,
      "bënòn": 3306,
      "bëndëgëlë": 3307,
      "bëbanda": 3308,
      "bënyiṅi": 3309,
      "bëdzaag": 3310,
      "bëyedëgan": 3311,
      "bëkònò": 3312,
      "èan": 3313,
      "mivë": 3314,
      "mikòbò": 3315,
      "mikad": 3316,
      "minyiṅ": 3317,
      "mimbëṅ": 3318,
      "miaku": 3319,
      "mitëbë": 3320,
      "mimfag": 3321,
      "mikam": 3322,
      "miwulu": 3323,
      "mibag": 3324,
      "mimbil": 3325,
      "miabyandi": 3326,
      "miwulugu": 3327,
      "mivòligi": 3328,
      "minyaa": 3329,
      "ngèt": 3330,
      "nyabi": 3331,
      "ṅwò": 3332,
      "ndom": 3333,
      "bòdan": 3334,
      "bim": 3335,
      "biv": 3336,
      "biye": 3337,
      "biku": 3338,
      "biyëbë": 3339,
      "binyiṅ": 3340,
      "binòṅ": 3341,
      "binyii": 3342,
      "bitye": 3343,
      "biwoge": 3344,
      "bilig": 3345,
      "biwogo": 3346,
      "bingënë": 3347,
      "biyii": 3348,
      "bizilngan": 3349,
      "bayëgëlë": 3350,
      "badaṅ": 3351,
      "bayaṅan": 3352,
      "bawoa": 3353,
      "basubu": 3354,
      "bakag": 3355,
      "balaṅëdan": 3356,
      "balum": 3357,
      "bafèd": 3358,
      "mëka": 3359,
      "mëziṅ": 3360,
      "mëtòbò": 3361,
      "mësili": 3362,
      "mëbaala": 3363,
      "mëtye": 3364,
      "mëtoan": 3365,
      "mëfudi": 3366,
      "mënòṅò": 3367,
      "mëzaa": 3368,
      "mëbëgë": 3369,
      "mëngënë": 3370,
      "mëyëb": 3371,
      "mëdaṅa": 3372,
      "mëndie": 3373,
      "yaku": 3374,
      "yakòbò": 3375,
      "yawòṅ": 3376,
      "yavëṅan": 3377,
      "yatoban": 3378,
      "yatyan": 3379,
      "yawum": 3380,
      "yafëm": 3381,
      "yatigëdan": 3382,
      "yason": 3383,
      "mati": 3384,
      "madug": 3385,
      "maag": 3386,
      "maloe": 3387,
      "matele": 3388,
      "matoan": 3389,
      "matyan": 3390,
      "malig": 3391,
      "madzu": 3392,
      "madzaè": 3393,
      "mafuu": 3394,
      "maatil": 3395,
      "yem": 3396,
      "sion": 3397,
      "singi": 3398,
      "sinai": 3399,
      "kikidi": 3400,
      "kikos": 3401,
      "latoban": 3402,
      "labòban": 3403,
      "layenan": 3404,
      "angabu": 3405,
      "angabie": 3406,
      "angaligi": 3407,
      "angatoan": 3408,
      "angakus": 3409,
      "angafudi": 3410,
      "angatag": 3411,
      "angatsidan": 3412,
      "angasoan": 3413,
      "angasam": 3414,
      "angasuan": 3415,
      "angabanda": 3416,
      "angahëlë": 3417,
      "nënë": 3418,
      "nëṅi": 3419,
      "tegè": 3420,
      "abel": 3421,
      "aboo": 3422,
      "abulu": 3423,
      "abudi": 3424,
      "lënë": 3425,
      "lëndë": 3426,
      "akanga": 3427,
      "akon": 3428,
      "akani": 3429,
      "akèègè": 3430,
      "akobògò": 3431,
      "dilan": 3432,
      "ntu": 3433,
      "ntom": 3434,
      "ntug": 3435,
      "ntsaman": 3436,
      "ntaan": 3437,
      "wadzëṅ": 3438,
      "watsog": 3439,
      "walëdë": 3440,
      "wabie": 3441,
      "asuu": 3442,
      "asusu": 3443,
      "omeus": 3444,
      "bëngatò": 3445,
      "bëngadaṅ": 3446,
      "bëngabaala": 3447,
      "bëngatsig": 3448,
      "bëngakus": 3449,
      "bëngavogolo": 3450,
      "bëngaluman": 3451,
      "bëngakomëzan": 3452,
      "bëngakuli": 3453,
      "bëngadzala": 3454,
      "bëngalaṅëdan": 3455,
      "bëngatuni": 3456,
      "bëngatibili": 3457,
      "bëngabomë": 3458,
      "enaṅ": 3459,
      "endzëki": 3460,
      "endzama": 3461,
      "enòdi": 3462,
      "kud": 3463,
      "banyie": 3464,
      "bandaman": 3465,
      "biabi": 3466,
      "biavë": 3467,
      "biadiṅ": 3468,
      "biadzëṅ": 3469,
      "biatye": 3470,
      "bialugu": 3471,
      "biatoṅ": 3472,
      "tëlan": 3473,
      "etsaman": 3474,
      "etogan": 3475,
      "mbaman": 3476,
      "lius": 3477,
      "limëṅan": 3478,
      "lisias": 3479,
      "sòli": 3480,
      "rius": 3481,
      "manna": 3482,
      "manas": 3483,
      "minsë": 3484,
      "minkom": 3485,
      "minkòl": 3486,
      "kas": 3487,
      "tòg": 3488,
      "ose": 3489,
      "osaala": 3490,
      "osanna": 3491,
      "miawoe": 3492,
      "miasye": 3493,
      "mialoe": 3494,
      "mialod": 3495,
      "mialuman": 3496,
      "mialaṅëdan": 3497,
      "ulugan": 3498,
      "esa": 3499,
      "esob": 3500,
      "atom": 3501,
      "atuni": 3502,
      "atsaman": 3503,
      "alaṅëdan": 3504,
      "gëlan": 3505,
      "dzëmë": 3506,
      "dzëdzaa": 3507,
      "tiati": 3508,
      "tibe": 3509,
      "ayit": 3510,
      "ayini": 3511,
      "kristen": 3512,
      "simeon": 3513,
      "etele": 3514,
      "fial": 3515,
      "ebu": 3516,
      "mëngasye": 3517,
      "mëngatele": 3518,
      "mëngatari": 3519,
      "mëngaluman": 3520,
      "bëbugu": 3521,
      "bëbede": 3522,
      "bëbyandi": 3523,
      "kot": 3524,
      "komodo": 3525,
      "fububan": 3526,
      "fubugan": 3527,
      "waanòṅ": 3528,
      "dugu": 3529,
      "dëge": 3530,
      "asaṅan": 3531,
      "asoṅ": 3532,
      "asaala": 3533,
      "kodëge": 3534,
      "enganaṅ": 3535,
      "fòlan": 3536,
      "fòmbògò": 3537,
      "mingawoe": 3538,
      "mingaduuban": 3539,
      "abëlëgë": 3540,
      "ongayi": 3541,
      "ongaku": 3542,
      "ongakë": 3543,
      "ongawog": 3544,
      "bëngabëgë": 3545,
      "bingadi": 3546,
      "bingakui": 3547,
      "bingaduuban": 3548,
      "engâ": 3549,
      "engasus": 3550,
      "engakodo": 3551,
      "paèn": 3552,
      "avëb": 3553,
      "avëṅ": 3554,
      "avëlë": 3555,
      "alad": 3556,
      "alada": 3557,
      "mfe": 3558,
      "saa": 3559,
      "sara": 3560,
      "siligan": 3561,
      "tobò": 3562,
      "akuligi": 3563,
      "nkaban": 3564,
      "tuban": 3565,
      "gbaligi": 3566,
      "babie": 3567,
      "akaba": 3568,
      "tarigan": 3569,
      "afidigi": 3570,
      "nsëlëg": 3571,
      "nkas": 3572,
      "mianyiṅ": 3573,
      "mëbam": 3574,
      "mvigi": 3575,
      "batoan": 3576,
      "angabòban": 3577,
      "filia": 3578,
      "minkun": 3579,
      "bëbòdò": 3580,
      "komo": 3581,
      "kamele": 3582,
      "bëngan": 3583,
      "efe": 3584,
      "soege": 3585,
      "mibòd": 3586,
      "bartol": 3587,
      "ṅyëgële": 3588,
      "ahëlë": 3589,
      "benyami": 3590,
      "bëmgbaligi": 3591,
      "bëwuu": 3592,
      "bazuzu": 3593,
      "ntëm": 3594,
      "ntëlë": 3595,
      "nyuu": 3596,
      "badoan": 3597,
      "dzuan": 3598,
      "mbuman": 3599,
      "nkokòn": 3600,
      "mëlende": 3601,
      "bëyëbëgë": 3602,
      "bëngabomolo": 3603,
      "anganòṅëban": 3604,
      "miakogëlan": 3605,
      "nkòl": 3606,
      "nkòban": 3607,
      "bëse": 3608,
      "minkòṅ": 3609,
      "minkaṅa": 3610,
      "amina": 3611,
      "amiam": 3612,
      "byalibyali": 3613,
      "nyëbë": 3614,
      "mgbali": 3615,
      "niko": 3616,
      "anyiṅi": 3617,
      "bëyit": 3618,
      "mënganòṅ": 3619,
      "mënganyiṅ": 3620,
      "mëngunda": 3621,
      "tiiban": 3622,
      "obëṅ": 3623,
      "ayëyëm": 3624,
      "ayëdan": 3625,
      "bëlèègè": 3626,
      "etil": 3627,
      "etigëdan": 3628,
      "mëfab": 3629,
      "mëfaṅ": 3630,
      "mëfon": 3631,
      "bivudëga": 3632,
      "makab": 3633,
      "angakab": 3634,
      "atsogo": 3635,
      "ovuma": 3636,
      "tëgëlan": 3637,
      "bëkal": 3638,
      "bësaala": 3639,
      "silvanus": 3640,
      "yoṅo": 3641,
      "fonan": 3642,
      "mëvëë": 3643,
      "ovëves": 3644,
      "nnëmëna": 3645,
      "mëbiaṅ": 3646,
      "nsamba": 3647,
      "atub": 3648,
      "atuud": 3649,
      "viege": 3650,
      "nòmbò": 3651,
      "atena": 3652,
      "adzogobo": 3653,
      "mënyaṅ": 3654,
      "alesander": 3655,
      "alesandria": 3656,
      "eyèt": 3657,
      "bëmëmë": 3658,
      "bifunga": 3659,
      "biboṅ": 3660,
      "natanaèl": 3661,
      "mimfèt": 3662,
      "mvëṅan": 3663,
      "mëvòṅ": 3664,
      "mëbëdan": 3665,
      "mëbadan": 3666,
      "avaag": 3667,
      "derba": 3668,
      "klaudi": 3669,
      "olërë": 3670,
      "pamfilia": 3671,
      "bëdzëbë": 3672,
      "bënòniṅi": 3673,
      "ṅwòban": 3674,
      "matias": 3675,
      "kikidigi": 3676,
      "tiatira": 3677,
      "bëbyandigi": 3678,
      "bartolomeus": 3679,
      "benyamin": 3680,
      "?-": 3681,
      "alë": 3682,
      "ara": 3683,
      "ayob": 3684,
      "adzie": 3685,
      "adzaṅ": 3686,
      "are": 3687,
      "ayon": 3688,
      "ayënan": 3689,
      "asiṅ": 3690,
      "atëbëlë": 3691,
      "adudu": 3692,
      "avoan": 3693,
      "ayole": 3694,
      "atëm": 3695,
      "ayono": 3696,
      "baṅ": 3697,
      "bom": 3698,
      "bomban": 3699,
      "dab": 3700,
      "doan": 3701,
      "dem": 3702,
      "ekë": 3703,
      "ewoe": 3704,
      "elu": 3705,
      "edzie": 3706,
      "ekan": 3707,
      "ezë": 3708,
      "ezëzë": 3709,
      "ekòn": 3710,
      "elëban": 3711,
      "ebëgë": 3712,
      "ekada": 3713,
      "efubu": 3714,
      "ekani": 3715,
      "edzalëban": 3716,
      "eyaman": 3717,
      "edzëb": 3718,
      "ezil": 3719,
      "eras": 3720,
      "ezilngan": 3721,
      "ewolo": 3722,
      "fri": 3723,
      "fel": 3724,
      "fyanga": 3725,
      "gama": 3726,
      "gomo": 3727,
      "iga": 3728,
      "igi": 3729,
      "isia": 3730,
      "ken": 3731,
      "kon": 3732,
      "kyaè": 3733,
      "kele": 3734,
      "koste": 3735,
      "lus": 3736,
      "laṅëban": 3737,
      "manë": 3738,
      "mes": 3739,
      "mete": 3740,
      "mum": 3741,
      "mbaala": 3742,
      "mmias": 3743,
      "mmè": 3744,
      "nna": 3745,
      "nte": 3746,
      "ndzo": 3747,
      "nlaṅ": 3748,
      "nef": 3749,
      "nsaṅa": 3750,
      "nsoan": 3751,
      "nzëzam": 3752,
      "nlòb": 3753,
      "owog": 3754,
      "ota": 3755,
      "oyean": 3756,
      "oyëgëlë": 3757,
      "otele": 3758,
      "okus": 3759,
      "otoban": 3760,
      "oyaan": 3761,
      "ovaa": 3762,
      "ovaè": 3763,
      "ozaa": 3764,
      "ofumi": 3765,
      "odzaṅa": 3766,
      "ozëzaṅ": 3767,
      "pu": 3768,
      "pen": 3769,
      "pèè": 3770,
      "rom": 3771,
      "rra": 3772,
      "samu": 3773,
      "sag": 3774,
      "soban": 3775,
      "solan": 3776,
      "tug": 3777,
      "wam": 3778,
      "waku": 3779,
      "wandzëki": 3780,
      "wakogëlan": 3781,
      "wakyëbë": 3782,
      "wabyandi": 3783,
      "wakuli": 3784,
      "wamëm": 3785,
      "wulugan": 3786,
      "yoe": 3787,
      "yèg": 3788,
      "yustus": 3789,
      "zak": 3790,
      "̂ng": 3791,
      "ëgë": 3792,
      "òdan": 3793,
      "any": 3794,
      "andie": 3795,
      "anea": 3796,
      "anyili": 3797,
      "anyoan": 3798,
      "bël": 3799,
      "bët": 3800,
      "bëna": 3801,
      "bëny": 3802,
      "bënyò": 3803,
      "bëmv": 3804,
      "bëkala": 3805,
      "bënòṅ": 3806,
      "bëtil": 3807,
      "bëyedan": 3808,
      "bëyaan": 3809,
      "bënyamëla": 3810,
      "bëwòbò": 3811,
      "bëlaṅëdan": 3812,
      "bëtëtëlë": 3813,
      "bëtsidan": 3814,
      "bënamba": 3815,
      "bëfaṅ": 3816,
      "bëbiege": 3817,
      "bësusu": 3818,
      "bëtyege": 3819,
      "bënyaa": 3820,
      "bësiṅi": 3821,
      "bëfòmbògò": 3822,
      "nag": 3823,
      "naas": 3824,
      "èf": 3825,
      "ambë": 3826,
      "amia": 3827,
      "mih": 3828,
      "mili": 3829,
      "miwog": 3830,
      "mira": 3831,
      "mita": 3832,
      "mindi": 3833,
      "miyëgëlë": 3834,
      "miakòbò": 3835,
      "mintilan": 3836,
      "mibaala": 3837,
      "miëṅ": 3838,
      "midzoge": 3839,
      "miwoge": 3840,
      "minyian": 3841,
      "miyanga": 3842,
      "mifudi": 3843,
      "mizaa": 3844,
      "milad": 3845,
      "mitag": 3846,
      "mibëgë": 3847,
      "mibëbëgë": 3848,
      "mikada": 3849,
      "mikulan": 3850,
      "mitub": 3851,
      "midzugi": 3852,
      "miabëbë": 3853,
      "mifon": 3854,
      "mimbëg": 3855,
      "mindum": 3856,
      "mitubu": 3857,
      "miakalan": 3858,
      "mikama": 3859,
      "midiṅi": 3860,
      "midaṅa": 3861,
      "mifuguzu": 3862,
      "mimbarëga": 3863,
      "miletus": 3864,
      "nyanga": 3865,
      "nyab": 3866,
      "nyui": 3867,
      "ṅyi": 3868,
      "ṅwoan": 3869,
      "ndan": 3870,
      "ndam": 3871,
      "ndugu": 3872,
      "bòdò": 3873,
      "biam": 3874,
      "biziṅ": 3875,
      "biza": 3876,
      "bikad": 3877,
      "bibëbë": 3878,
      "binam": 3879,
      "bitu": 3880,
      "bitëlë": 3881,
      "biyëmë": 3882,
      "biyè": 3883,
      "bitari": 3884,
      "biwulu": 3885,
      "bianyian": 3886,
      "bikob": 3887,
      "bikodeban": 3888,
      "bibas": 3889,
      "bisie": 3890,
      "bikada": 3891,
      "bikpë": 3892,
      "bikok": 3893,
      "biabëbë": 3894,
      "bidiṅan": 3895,
      "biabed": 3896,
      "biwon": 3897,
      "biwulugu": 3898,
      "bikpè": 3899,
      "bibëdë": 3900,
      "bilëbë": 3901,
      "bimbëlë": 3902,
      "bayaè": 3903,
      "basòṅ": 3904,
      "bakoan": 3905,
      "balod": 3906,
      "bayanga": 3907,
      "balig": 3908,
      "badzaè": 3909,
      "batòb": 3910,
      "badzala": 3911,
      "batub": 3912,
      "batsidan": 3913,
      "badudu": 3914,
      "bafëm": 3915,
      "bakoe": 3916,
      "batindi": 3917,
      "balòṅ": 3918,
      "basuan": 3919,
      "basuu": 3920,
      "bayëdan": 3921,
      "balam": 3922,
      "bâng": 3923,
      "mëdi": 3924,
      "mëngë": 3925,
      "mëmbë": 3926,
      "mënyiṅ": 3927,
      "mëzi": 3928,
      "mësye": 3929,
      "mëlom": 3930,
      "mënòṅ": 3931,
      "mëtsig": 3932,
      "mëvò": 3933,
      "mëvaè": 3934,
      "mëyëṅ": 3935,
      "mëdzala": 3936,
      "mëyënan": 3937,
      "mëtii": 3938,
      "mëndzaṅ": 3939,
      "mëyom": 3940,
      "mëliṅan": 3941,
      "yabi": 3942,
      "yadugan": 3943,
      "yakoan": 3944,
      "yatag": 3945,
      "yakyëbë": 3946,
      "yatsende": 3947,
      "yasole": 3948,
      "mate": 3949,
      "madi": 3950,
      "matsig": 3951,
      "mawoge": 3952,
      "mavaè": 3953,
      "mavu": 3954,
      "mazombo": 3955,
      "mabad": 3956,
      "matag": 3957,
      "masug": 3958,
      "mateus": 3959,
      "madzugi": 3960,
      "mataman": 3961,
      "mabëlan": 3962,
      "malëb": 3963,
      "yebë": 3964,
      "yere": 3965,
      "yëan": 3966,
      "sëmë": 3967,
      "silo": 3968,
      "kilan": 3969,
      "kiègè": 3970,
      "kilom": 3971,
      "lada": 3972,
      "ladaṅ": 3973,
      "angadzoe": 3974,
      "angatsig": 3975,
      "angalaṅ": 3976,
      "angavaè": 3977,
      "angadzu": 3978,
      "angadzaè": 3979,
      "angakaman": 3980,
      "angafyè": 3981,
      "angadzibi": 3982,
      "angatub": 3983,
      "angadzugi": 3984,
      "angataman": 3985,
      "angatëbëlë": 3986,
      "angayaaban": 3987,
      "angawone": 3988,
      "angayole": 3989,
      "angatoe": 3990,
      "angakaè": 3991,
      "yimbi": 3992,
      "tekoste": 3993,
      "aboe": 3994,
      "abaman": 3995,
      "abombo": 3996,
      "aboṅ": 3997,
      "abendëge": 3998,
      "aboda": 3999,
      "ogë": 4000,
      "lëntoa": 4001,
      "lëbòban": 4002,
      "akòṅ": 4003,
      "akus": 4004,
      "fëan": 4005,
      "dina": 4006,
      "didi": 4007,
      "ntus": 4008,
      "ntui": 4009,
      "ntaman": 4010,
      "ntòg": 4011,
      "waa": 4012,
      "wasë": 4013,
      "wadi": 4014,
      "walugu": 4015,
      "walaṅ": 4016,
      "wawulu": 4017,
      "wavaè": 4018,
      "wayon": 4019,
      "watoṅ": 4020,
      "walad": 4021,
      "wafyè": 4022,
      "ambarëga": 4023,
      "ome": 4024,
      "omom": 4025,
      "bodogo": 4026,
      "abëki": 4027,
      "abële": 4028,
      "olom": 4029,
      "olodo": 4030,
      "bëngâ": 4031,
      "bëngatègè": 4032,
      "bëngaboe": 4033,
      "bëngatsog": 4034,
      "bëngalëdë": 4035,
      "bëngadzoge": 4036,
      "bëngaligi": 4037,
      "bëngakuan": 4038,
      "bëngaloṅ": 4039,
      "bëngalad": 4040,
      "bëngatub": 4041,
      "bëngasiṅ": 4042,
      "bëngalug": 4043,
      "bëngafëdan": 4044,
      "bëngabobolo": 4045,
      "enes": 4046,
      "enea": 4047,
      "enis": 4048,
      "enok": 4049,
      "ugi": 4050,
      "nyòli": 4051,
      "kudan": 4052,
      "kudu": 4053,
      "mvom": 4054,
      "mvaa": 4055,
      "mvaan": 4056,
      "bandëgëlë": 4057,
      "biatòbò": 4058,
      "bialom": 4059,
      "biatoan": 4060,
      "biabad": 4061,
      "biatag": 4062,
      "biasole": 4063,
      "etyan": 4064,
      "etrius": 4065,
      "lidas": 4066,
      "fum": 4067,
      "fur": 4068,
      "dali": 4069,
      "sòbò": 4070,
      "sòdi": 4071,
      "dzaman": 4072,
      "manòṅ": 4073,
      "minòṅ": 4074,
      "minkë": 4075,
      "minkam": 4076,
      "kaba": 4077,
      "kara": 4078,
      "mbëbala": 4079,
      "vëlë": 4080,
      "vëvëë": 4081,
      "osaṅ": 4082,
      "miavë": 4083,
      "miadzoe": 4084,
      "miasëm": 4085,
      "miatòbò": 4086,
      "miabaala": 4087,
      "miatye": 4088,
      "miabòòlò": 4089,
      "miawulu": 4090,
      "miavogolo": 4091,
      "miatoṅ": 4092,
      "miadzèè": 4093,
      "miadzibi": 4094,
      "miavuma": 4095,
      "kòr": 4096,
      "esaman": 4097,
      "esrom": 4098,
      "atè": 4099,
      "atoe": 4100,
      "atègè": 4101,
      "alum": 4102,
      "alèègè": 4103,
      "almen": 4104,
      "wogëban": 4105,
      "gëzë": 4106,
      "endugëlan": 4107,
      "tib": 4108,
      "tima": 4109,
      "tiga": 4110,
      "tiel": 4111,
      "tindë": 4112,
      "ayimbi": 4113,
      "tabita": 4114,
      "ono": 4115,
      "mbole": 4116,
      "wun": 4117,
      "wuban": 4118,
      "wundi": 4119,
      "etelëga": 4120,
      "fia": 4121,
      "fid": 4122,
      "fil": 4123,
      "ebog": 4124,
      "yum": 4125,
      "lukas": 4126,
      "mëngawu": 4127,
      "mëngadzie": 4128,
      "mëngakus": 4129,
      "mëngabòban": 4130,
      "mëngabyali": 4131,
      "mëngabende": 4132,
      "mëngabed": 4133,
      "mëngakalan": 4134,
      "abana": 4135,
      "abòdò": 4136,
      "bëbug": 4137,
      "bëbyali": 4138,
      "bëbomo": 4139,
      "akëṅ": 4140,
      "waanyiṅ": 4141,
      "dëṅa": 4142,
      "dëmëlë": 4143,
      "lèd": 4144,
      "mintèt": 4145,
      "dzòlan": 4146,
      "asam": 4147,
      "uguzu": 4148,
      "agus": 4149,
      "kandan": 4150,
      "kananea": 4151,
      "kodëban": 4152,
      "bëbëlan": 4153,
      "awòdan": 4154,
      "engong": 4155,
      "elkuma": 4156,
      "syeban": 4157,
      "mingâ": 4158,
      "mingaku": 4159,
      "mingazu": 4160,
      "mingawu": 4161,
      "mingatègè": 4162,
      "mingalom": 4163,
      "mingalaṅ": 4164,
      "mingatoṅ": 4165,
      "mingaliṅan": 4166,
      "nkum": 4167,
      "nkulan": 4168,
      "ongâ": 4169,
      "ongayègè": 4170,
      "ongatari": 4171,
      "ongakom": 4172,
      "ongasubu": 4173,
      "misaman": 4174,
      "bingat": 4175,
      "bingatòbò": 4176,
      "bingafidi": 4177,
      "bingakogëlan": 4178,
      "bingatari": 4179,
      "bingatil": 4180,
      "bingavëṅan": 4181,
      "bingawulu": 4182,
      "bingabende": 4183,
      "bingakomban": 4184,
      "engayi": 4185,
      "engaku": 4186,
      "engadzo": 4187,
      "engakulëban": 4188,
      "engavin": 4189,
      "engaloṅëban": 4190,
      "paa": 4191,
      "lot": 4192,
      "robab": 4193,
      "loege": 4194,
      "sad": 4195,
      "homo": 4196,
      "asòbò": 4197,
      "asòòg": 4198,
      "asògò": 4199,
      "tobe": 4200,
      "tonde": 4201,
      "yangan": 4202,
      "akuig": 4203,
      "akuda": 4204,
      "akulëban": 4205,
      "budan": 4206,
      "nkogolo": 4207,
      "bibom": 4208,
      "mëluman": 4209,
      "babëdzaṅa": 4210,
      "tukikos": 4211,
      "yëmëlë": 4212,
      "akëlëg": 4213,
      "tëbëga": 4214,
      "afyal": 4215,
      "nloṅan": 4216,
      "asëlan": 4217,
      "lëdëgan": 4218,
      "abindi": 4219,
      "abindigi": 4220,
      "nkalan": 4221,
      "atindi": 4222,
      "atibili": 4223,
      "erm": 4224,
      "eliaki": 4225,
      "rena": 4226,
      "mëben": 4227,
      "mëbui": 4228,
      "mëbyali": 4229,
      "mëkit": 4230,
      "angaben": 4231,
      "mvindi": 4232,
      "bëkam": 4233,
      "bëkomo": 4234,
      "koman": 4235,
      "anganyiṅ": 4236,
      "bënganyu": 4237,
      "riad": 4238,
      "rahab": 4239,
      "efus": 4240,
      "binaṅ": 4241,
      "mibòòg": 4242,
      "galius": 4243,
      "adili": 4244,
      "angoge": 4245,
      "vaagan": 4246,
      "bëngayit": 4247,
      "ṅyëgëlan": 4248,
      "ndiṅan": 4249,
      "ahëb": 4250,
      "bëmgbali": 4251,
      "bëbimi": 4252,
      "iada": 4253,
      "bëkëlëg": 4254,
      "biandzë": 4255,
      "biandaman": 4256,
      "dzuuban": 4257,
      "nkokom": 4258,
      "mayene": 4259,
      "kain": 4260,
      "erodiada": 4261,
      "ekokòbò": 4262,
      "angayili": 4263,
      "bëngasòg": 4264,
      "bëngasòdi": 4265,
      "bëngabyali": 4266,
      "vòligan": 4267,
      "miakaman": 4268,
      "bësalmen": 4269,
      "bagban": 4270,
      "angabindi": 4271,
      "yosèf": 4272,
      "bayene": 4273,
      "mëtaman": 4274,
      "mingabëlan": 4275,
      "atsidëgan": 4276,
      "afëb": 4277,
      "afëm": 4278,
      "nive": 4279,
      "ninive": 4280,
      "efulan": 4281,
      "mibindi": 4282,
      "ayëlë": 4283,
      "ayëman": 4284,
      "nkënga": 4285,
      "nkëban": 4286,
      "esòli": 4287,
      "etitib": 4288,
      "bikëla": 4289,
      "mbedan": 4290,
      "ongon": 4291,
      "onganòṅ": 4292,
      "onganyian": 4293,
      "efëma": 4294,
      "ekaa": 4295,
      "balaam": 4296,
      "mëfan": 4297,
      "angakulëban": 4298,
      "atyege": 4299,
      "angakòṅan": 4300,
      "salmon": 4301,
      "silfas": 4302,
      "akilan": 4303,
      "salatiel": 4304,
      "badigi": 4305,
      "basòg": 4306,
      "ebigidi": 4307,
      "ntumba": 4308,
      "eviege": 4309,
      "osòli": 4310,
      "osòòg": 4311,
      "bëlumu": 4312,
      "binganyiṅ": 4313,
      "alindi": 4314,
      "ewuwu": 4315,
      "mwomo": 4316,
      "bibibian": 4317,
      "leviten": 4318,
      "nnëṅ": 4319,
      "bëlëdëgë": 4320,
      "awòbògò": 4321,
      "bëyiigi": 4322,
      "stefanas": 4323,
      "avuṅu": 4324,
      "kpaèn": 4325,
      "nlugan": 4326,
      "nònëṅi": 4327,
      "zor": 4328,
      "zorobab": 4329,
      "miasòg": 4330,
      "bivëgëlë": 4331,
      "siigi": 4332,
      "lëngabë": 4333,
      "lëngasò": 4334,
      "minsòs": 4335,
      "perga": 4336,
      "aloṅo": 4337,
      "suguzu": 4338,
      "ahama": 4339,
      "beroa": 4340,
      "berenis": 4341,
      "demas": 4342,
      "priska": 4343,
      "priskila": 4344,
      "miabaman": 4345,
      "akomëzan": 4346,
      "adzalëga": 4347,
      "engëngam": 4348,
      "epafras": 4349,
      "fenisia": 4350,
      "opagus": 4351,
      "pontus": 4352,
      "wonëṅe": 4353,
      "bëhòg": 4354,
      "yesse": 4355,
      "sulfur": 4356,
      "sirenea": 4357,
      "boaz": 4358,
      "ebëg": 4359,
      "mbarëgan": 4360,
      "bëtëtëlan": 4361,
      "bësiege": 4362,
      "minsëṅ": 4363,
      "esau": 4364,
      "tiberiad": 4365,
      "aminadab": 4366,
      "etilga": 4367,
      "klaudius": 4368,
      "arabia": 4369,
      "areopagus": 4370,
      "demetrius": 4371,
      "ezëṅ": 4372,
      "ezëzëk": 4373,
      "ezilgan": 4374,
      "erastus": 4375,
      "frizia": 4376,
      "felfes": 4377,
      "gomorra": 4378,
      "messias": 4379,
      "mumba": 4380,
      "neftali": 4381,
      "pentekoste": 4382,
      "samuel": 4383,
      "zakeus": 4384,
      "bëmvelkuma": 4385,
      "naason": 4386,
      "bânganyian": 4387,
      "mëzik": 4388,
      "mëvòt": 4389,
      "yeremias": 4390,
      "siloam": 4391,
      "didimos": 4392,
      "omomoa": 4393,
      "minkamaṅ": 4394,
      "engongom": 4395,
      "eliakim": 4396,
      "zorobabel": 4397,
      "!'": 4398,
      "'.": 4399,
      "azamba": 4400,
      "ari": 4401,
      "afa": 4402,
      "ahi": 4403,
      "avu": 4404,
      "abad": 4405,
      "ave": 4406,
      "azar": 4407,
      "aduuban": 4408,
      "adzalëban": 4409,
      "adzòs": 4410,
      "adzimbi": 4411,
      "asiṅi": 4412,
      "aviege": 4413,
      "azor": 4414,
      "bus": 4415,
      "bri": 4416,
      "baman": 4417,
      "byean": 4418,
      "befa": 4419,
      "byandi": 4420,
      "buni": 4421,
      "bugan": 4422,
      "bulugu": 4423,
      "bamias": 4424,
      "bamiam": 4425,
      "dam": 4426,
      "dak": 4427,
      "dabë": 4428,
      "daṅan": 4429,
      "elë": 4430,
      "edzi": 4431,
      "esus": 4432,
      "era": 4433,
      "edzë": 4434,
      "eyian": 4435,
      "ebòn": 4436,
      "efulu": 4437,
      "ekodo": 4438,
      "ezaag": 4439,
      "eyò": 4440,
      "edzèè": 4441,
      "ekuli": 4442,
      "ebòban": 4443,
      "ekag": 4444,
      "engëṅ": 4445,
      "ewoaban": 4446,
      "ewonë": 4447,
      "entëlë": 4448,
      "fè": 4449,
      "fai": 4450,
      "fug": 4451,
      "faṅan": 4452,
      "fodan": 4453,
      "gbi": 4454,
      "gol": 4455,
      "gbaṅ": 4456,
      "gota": 4457,
      "ham": 4458,
      "haman": 4459,
      "kòṅ": 4460,
      "kamba": 4461,
      "kle": 4462,
      "konia": 4463,
      "krea": 4464,
      "kelëban": 4465,
      "lòṅan": 4466,
      "mmi": 4467,
      "manga": 4468,
      "mus": 4469,
      "mesë": 4470,
      "menë": 4471,
      "meki": 4472,
      "ndz": 4473,
      "nsu": 4474,
      "nsi": 4475,
      "naṅ": 4476,
      "nus": 4477,
      "nkad": 4478,
      "nlò": 4479,
      "nzë": 4480,
      "ndzaan": 4481,
      "nse": 4482,
      "nlaṅan": 4483,
      "nsaṅan": 4484,
      "nkadan": 4485,
      "ndzëm": 4486,
      "nsul": 4487,
      "of": 4488,
      "ona": 4489,
      "oga": 4490,
      "ongë": 4491,
      "oaban": 4492,
      "odzie": 4493,
      "odzëṅ": 4494,
      "obòò": 4495,
      "otil": 4496,
      "olëdë": 4497,
      "ongòl": 4498,
      "ovëṅan": 4499,
      "okodo": 4500,
      "opi": 4501,
      "ovogolo": 4502,
      "oyëṅ": 4503,
      "okomëzan": 4504,
      "osigi": 4505,
      "odzu": 4506,
      "okodeban": 4507,
      "odzala": 4508,
      "otsogo": 4509,
      "okulan": 4510,
      "otëg": 4511,
      "okyëbë": 4512,
      "otii": 4513,
      "ozia": 4514,
      "otub": 4515,
      "otsende": 4516,
      "ofèd": 4517,
      "ofulan": 4518,
      "okoe": 4519,
      "ondo": 4520,
      "oyaaban": 4521,
      "odzogo": 4522,
      "obiege": 4523,
      "owoaban": 4524,
      "oyaa": 4525,
      "obaè": 4526,
      "ofil": 4527,
      "owonëṅe": 4528,
      "pat": 4529,
      "pot": 4530,
      "plius": 4531,
      "rna": 4532,
      "rai": 4533,
      "rka": 4534,
      "raka": 4535,
      "rodi": 4536,
      "smi": 4537,
      "soa": 4538,
      "salem": 4539,
      "th": 4540,
      "tri": 4541,
      "ton": 4542,
      "tulus": 4543,
      "tsaa": 4544,
      "uel": 4545,
      "vaṅ": 4546,
      "vòm": 4547,
      "volo": 4548,
      "vuṅu": 4549,
      "wakui": 4550,
      "wabende": 4551,
      "wakab": 4552,
      "wonòṅ": 4553,
      "wabed": 4554,
      "wabobolo": 4555,
      "wakalan": 4556,
      "yoa": 4557,
      "yangabò": 4558,
      "yombo": 4559,
      "zul": 4560,
      "zon": 4561,
      "zel": 4562,
      "zoṅ": 4563,
      "»?": 4564,
      "òdò": 4565,
      "anan": 4566,
      "anon": 4567,
      "anyie": 4568,
      "anyaman": 4569,
      "anyii": 4570,
      "bëya": 4571,
      "bësi": 4572,
      "bëli": 4573,
      "bëdiṅ": 4574,
      "bëyean": 4575,
      "bëdò": 4576,
      "bëlo": 4577,
      "bëdaṅ": 4578,
      "bëndëm": 4579,
      "bëyaṅan": 4580,
      "bëtempel": 4581,
      "bëwoge": 4582,
      "bëvaè": 4583,
      "bëluman": 4584,
      "bëdzèè": 4585,
      "bëdzu": 4586,
      "bëdzala": 4587,
      "bëtam": 4588,
      "bësug": 4589,
      "bëgrek": 4590,
      "bëyene": 4591,
      "bëtii": 4592,
      "bëfèd": 4593,
      "bëtëbëlë": 4594,
      "bëkpëlë": 4595,
      "bëvoan": 4596,
      "bënkulu": 4597,
      "bësuu": 4598,
      "bëmvaman": 4599,
      "bëtè": 4600,
      "bëdaṅa": 4601,
      "bëyëbe": 4602,
      "bënyaag": 4603,
      "bësogolo": 4604,
      "bëdugu": 4605,
      "bëntëlë": 4606,
      "bëdzaman": 4607,
      "bësilfas": 4608,
      "bëleviten": 4609,
      "nada": 4610,
      "amvaman": 4611,
      "miyi": 4612,
      "mitë": 4613,
      "mingë": 4614,
      "mikui": 4615,
      "miyègè": 4616,
      "midzëṅ": 4617,
      "mibie": 4618,
      "miṅyë": 4619,
      "mivu": 4620,
      "minguma": 4621,
      "minyu": 4622,
      "mikodeban": 4623,
      "midzoo": 4624,
      "mikaman": 4625,
      "miwum": 4626,
      "mikyëbë": 4627,
      "mituni": 4628,
      "mitsigi": 4629,
      "mibui": 4630,
      "minyiṅi": 4631,
      "milodo": 4632,
      "mimvaman": 4633,
      "mibomë": 4634,
      "mindil": 4635,
      "milëdëgë": 4636,
      "miliṅan": 4637,
      "mityege": 4638,
      "mikab": 4639,
      "miyono": 4640,
      "midzibigi": 4641,
      "mimvumvug": 4642,
      "mitobò": 4643,
      "midzuan": 4644,
      "milada": 4645,
      "ngogë": 4646,
      "dzòg": 4647,
      "aine": 4648,
      "nye": 4649,
      "ṅo": 4650,
      "ṅu": 4651,
      "ṅëlan": 4652,
      "ṅlaṅan": 4653,
      "ṅyenan": 4654,
      "ṅwogan": 4655,
      "ṅyebe": 4656,
      "nden": 4657,
      "ndèn": 4658,
      "ndugëlan": 4659,
      "bimi": 4660,
      "biga": 4661,
      "biki": 4662,
      "bifë": 4663,
      "bika": 4664,
      "biyaè": 4665,
      "bidu": 4666,
      "bibòn": 4667,
      "bikogëlan": 4668,
      "biyënë": 4669,
      "bianyu": 4670,
      "bilëdë": 4671,
      "bidaṅ": 4672,
      "bivëṅan": 4673,
      "bikodo": 4674,
      "bikomëzan": 4675,
      "bidzaè": 4676,
      "biakodo": 4677,
      "biwum": 4678,
      "bikyëbë": 4679,
      "bisòm": 4680,
      "bifulan": 4681,
      "biamëm": 4682,
      "biabëlan": 4683,
      "bitin": 4684,
      "bidzogo": 4685,
      "bifo": 4686,
      "biakuan": 4687,
      "bingëṅ": 4688,
      "bidzimbi": 4689,
      "bifidigi": 4690,
      "bityege": 4691,
      "bives": 4692,
      "bimvaṅ": 4693,
      "binyuu": 4694,
      "bisoa": 4695,
      "baa": 4696,
      "basus": 4697,
      "bara": 4698,
      "bati": 4699,
      "bata": 4700,
      "babëbë": 4701,
      "bayègè": 4702,
      "bakala": 4703,
      "bafidi": 4704,
      "babye": 4705,
      "batëbë": 4706,
      "batari": 4707,
      "batil": 4708,
      "bawom": 4709,
      "bakom": 4710,
      "basoe": 4711,
      "bayaan": 4712,
      "bafudi": 4713,
      "bakòn": 4714,
      "baloṅ": 4715,
      "baduuban": 4716,
      "babyali": 4717,
      "bawòbò": 4718,
      "bafulan": 4719,
      "bavus": 4720,
      "balug": 4721,
      "bakpëlë": 4722,
      "bakani": 4723,
      "bakalan": 4724,
      "badzëb": 4725,
      "batimi": 4726,
      "badzib": 4727,
      "bagëban": 4728,
      "bafumi": 4729,
      "bayole": 4730,
      "badzëman": 4731,
      "babobolo": 4732,
      "badzugulu": 4733,
      "baalan": 4734,
      "mëban": 4735,
      "mëli": 4736,
      "mëman": 4737,
      "mënyi": 4738,
      "mëza": 4739,
      "mëdzie": 4740,
      "mësëki": 4741,
      "mëyëgëlë": 4742,
      "mëdu": 4743,
      "mëndë": 4744,
      "mëfoe": 4745,
      "mëkode": 4746,
      "mëfulu": 4747,
      "mësaṅ": 4748,
      "mëlod": 4749,
      "mëmaṅ": 4750,
      "mëbòòlò": 4751,
      "mënyian": 4752,
      "mëngaṅ": 4753,
      "mësòman": 4754,
      "mëdzu": 4755,
      "mëkodeban": 4756,
      "mëtam": 4757,
      "mëmvoe": 4758,
      "mëse": 4759,
      "mëfyè": 4760,
      "mëndëgëlë": 4761,
      "mëbala": 4762,
      "mëyili": 4763,
      "mënyëb": 4764,
      "mëbanda": 4765,
      "mëndum": 4766,
      "mëyaaban": 4767,
      "mëyii": 4768,
      "mëwodan": 4769,
      "mëloeban": 4770,
      "mëkònò": 4771,
      "mësoṅ": 4772,
      "mëbum": 4773,
      "mënyëbë": 4774,
      "mëyoṅo": 4775,
      "mëndèn": 4776,
      "yayë": 4777,
      "yadi": 4778,
      "yawog": 4779,
      "yayëm": 4780,
      "yawoe": 4781,
      "yawu": 4782,
      "yabëlë": 4783,
      "yabëbë": 4784,
      "yadzëṅ": 4785,
      "yalëdë": 4786,
      "yavol": 4787,
      "yasòman": 4788,
      "yabad": 4789,
      "yakaman": 4790,
      "yalaṅan": 4791,
      "yalende": 4792,
      "yavëëban": 4793,
      "yatindi": 4794,
      "yadzëman": 4795,
      "yavie": 4796,
      "yadzëban": 4797,
      "yasëlan": 4798,
      "yafòlan": 4799,
      "oden": 4800,
      "odaṅa": 4801,
      "maba": 4802,
      "madzoe": 4803,
      "mawu": 4804,
      "matòbò": 4805,
      "mayëgëlë": 4806,
      "mabye": 4807,
      "mabie": 4808,
      "malugu": 4809,
      "makam": 4810,
      "malèè": 4811,
      "mayanga": 4812,
      "mayaan": 4813,
      "mavogolo": 4814,
      "maluman": 4815,
      "masòman": 4816,
      "madzèè": 4817,
      "matam": 4818,
      "matii": 4819,
      "mabed": 4820,
      "mafubu": 4821,
      "mabede": 4822,
      "mayag": 4823,
      "mafëm": 4824,
      "madzòs": 4825,
      "mavie": 4826,
      "mabisi": 4827,
      "yekonia": 4828,
      "yëyëm": 4829,
      "sua": 4830,
      "suli": 4831,
      "suman": 4832,
      "sulan": 4833,
      "gabò": 4834,
      "gaku": 4835,
      "gakodo": 4836,
      "gabè": 4837,
      "galoeban": 4838,
      "gabri": 4839,
      "siku": 4840,
      "sidia": 4841,
      "sinag": 4842,
      "sirena": 4843,
      "kie": 4844,
      "kiè": 4845,
      "kipus": 4846,
      "ladzo": 4847,
      "layëbë": 4848,
      "lakòbò": 4849,
      "layene": 4850,
      "lakub": 4851,
      "labudan": 4852,
      "angas": 4853,
      "angabëlë": 4854,
      "angadzie": 4855,
      "angasëm": 4856,
      "angadzaṅ": 4857,
      "angayègè": 4858,
      "angasa": 4859,
      "angakoan": 4860,
      "angadaṅ": 4861,
      "angalugu": 4862,
      "angafam": 4863,
      "angakòn": 4864,
      "angawoa": 4865,
      "angavu": 4866,
      "angaluman": 4867,
      "angadzèè": 4868,
      "angatam": 4869,
      "angakulan": 4870,
      "angatsende": 4871,
      "angalug": 4872,
      "angayag": 4873,
      "angafòmbò": 4874,
      "angatimi": 4875,
      "angawon": 4876,
      "angasuu": 4877,
      "angafëdan": 4878,
      "angafëb": 4879,
      "angafoṅan": 4880,
      "angafimi": 4881,
      "yidëban": 4882,
      "tetra": 4883,
      "teofil": 4884,
      "abba": 4885,
      "abèè": 4886,
      "abole": 4887,
      "aboman": 4888,
      "lëbò": 4889,
      "lëmbò": 4890,
      "lëza": 4891,
      "lëbòò": 4892,
      "akod": 4893,
      "akaṅ": 4894,
      "akaban": 4895,
      "akas": 4896,
      "akòṅan": 4897,
      "akòb": 4898,
      "akpaèn": 4899,
      "fëlan": 4900,
      "diban": 4901,
      "diakon": 4902,
      "ntam": 4903,
      "ntsigan": 4904,
      "wabë": 4905,
      "waki": 4906,
      "wawu": 4907,
      "wabëbë": 4908,
      "wasëm": 4909,
      "watòbò": 4910,
      "wasye": 4911,
      "waloe": 4912,
      "wasili": 4913,
      "watele": 4914,
      "wadaṅ": 4915,
      "walèè": 4916,
      "wayanga": 4917,
      "wavòli": 4918,
      "wayene": 4919,
      "wawum": 4920,
      "wayëgan": 4921,
      "wafëm": 4922,
      "wasole": 4923,
      "watala": 4924,
      "wasaṅan": 4925,
      "watè": 4926,
      "walaṅëban": 4927,
      "ombë": 4928,
      "minada": 4929,
      "abëban": 4930,
      "abëbëgë": 4931,
      "oli": 4932,
      "olu": 4933,
      "olod": 4934,
      "olug": 4935,
      "bëngasus": 4936,
      "bëngadiṅ": 4937,
      "bëngawulu": 4938,
      "bëngasoe": 4939,
      "bëngatoan": 4940,
      "bëngatoban": 4941,
      "bëngayanga": 4942,
      "bëngayaan": 4943,
      "bëngayon": 4944,
      "bëngasòman": 4945,
      "bëngatòb": 4946,
      "bëngasie": 4947,
      "bëngavòli": 4948,
      "bëngawum": 4949,
      "bëngalaṅan": 4950,
      "bëngasoan": 4951,
      "bëngataman": 4952,
      "bëngakpëlë": 4953,
      "bëngayag": 4954,
      "bëngafòmbò": 4955,
      "bëngafon": 4956,
      "bëngatsaman": 4957,
      "bëngasob": 4958,
      "bëngakalan": 4959,
      "bëngadzëb": 4960,
      "bëngasuu": 4961,
      "bëngalam": 4962,
      "bëngatogan": 4963,
      "bëngahëg": 4964,
      "bëngatui": 4965,
      "bëngatsag": 4966,
      "bëngabèan": 4967,
      "bëngafòṅòlò": 4968,
      "bëngafial": 4969,
      "bëngafòlan": 4970,
      "bëngasolan": 4971,
      "endzie": 4972,
      "enaṅa": 4973,
      "nyòò": 4974,
      "mvog": 4975,
      "mvag": 4976,
      "bana": 4977,
      "banyu": 4978,
      "biad": 4979,
      "biasë": 4980,
      "biaki": 4981,
      "biawoe": 4982,
      "biafidi": 4983,
      "biabaala": 4984,
      "biadzoge": 4985,
      "bialigi": 4986,
      "biatoban": 4987,
      "biatie": 4988,
      "biayene": 4989,
      "bialaṅan": 4990,
      "bialum": 4991,
      "biataman": 4992,
      "biayëgan": 4993,
      "etug": 4994,
      "etot": 4995,
      "mbuṅ": 4996,
      "mbendan": 4997,
      "lia": 4998,
      "liel": 4999,
      "lidia": 5000,
      "fud": 5001,
      "fulus": 5002,
      "mandaman": 5003,
      "manyëb": 5004,
      "manyum": 5005,
      "minka": 5006,
      "minkan": 5007,
      "minòṅò": 5008,
      "kar": 5009,
      "kapa": 5010,
      "kalëgan": 5011,
      "tòban": 5012,
      "tòbëban": 5013,
      "mbëdan": 5014,
      "dzoan": 5015,
      "lanyian": 5016,
      "miasë": 5017,
      "miawu": 5018,
      "miayëgëlë": 5019,
      "miasili": 5020,
      "miafidi": 5021,
      "miadzoge": 5022,
      "mialaṅ": 5023,
      "miatoban": 5024,
      "miayanga": 5025,
      "miafudi": 5026,
      "miayon": 5027,
      "miasòman": 5028,
      "miadzu": 5029,
      "miatag": 5030,
      "miatam": 5031,
      "miayene": 5032,
      "mialaṅan": 5033,
      "miatii": 5034,
      "miatub": 5035,
      "miadiṅan": 5036,
      "miavoan": 5037,
      "miadzòs": 5038,
      "miabada": 5039,
      "miafuguzu": 5040,
      "miatëb": 5041,
      "kòòdò": 5042,
      "esog": 5043,
      "esole": 5044,
      "esosòli": 5045,
      "yoyòg": 5046,
      "yosia": 5047,
      "yoanna": 5048,
      "yosua": 5049,
      "këṅ": 5050,
      "atam": 5051,
      "atole": 5052,
      "atsaag": 5053,
      "alam": 5054,
      "almos": 5055,
      "alek": 5056,
      "alòṅò": 5057,
      "mambë": 5058,
      "mamana": 5059,
      "radis": 5060,
      "razin": 5061,
      "fage": 5062,
      "mbòs": 5063,
      "haran": 5064,
      "tia": 5065,
      "tian": 5066,
      "titimi": 5067,
      "timiṅi": 5068,
      "titima": 5069,
      "tigbi": 5070,
      "ayin": 5071,
      "ayigi": 5072,
      "krispus": 5073,
      "zud": 5074,
      "yobèd": 5075,
      "onkë": 5076,
      "onesi": 5077,
      "wuman": 5078,
      "wuwub": 5079,
      "fig": 5080,
      "fiè": 5081,
      "filad": 5082,
      "eboo": 5083,
      "eboga": 5084,
      "bëlëgan": 5085,
      "yulius": 5086,
      "lukan": 5087,
      "lumbu": 5088,
      "lumëṅan": 5089,
      "zara": 5090,
      "zayaṅ": 5091,
      "mëngab": 5092,
      "mëngayëm": 5093,
      "mëngayègè": 5094,
      "mëngadu": 5095,
      "mëngaloe": 5096,
      "mëngabye": 5097,
      "mëngalëdë": 5098,
      "mëngalod": 5099,
      "mëngatye": 5100,
      "mëngayedan": 5101,
      "mëngavëṅan": 5102,
      "mëngalèè": 5103,
      "mëngafudi": 5104,
      "mëngalig": 5105,
      "mëngakani": 5106,
      "mëngavëëban": 5107,
      "mëngayaaban": 5108,
      "mëngafuu": 5109,
      "mëngadian": 5110,
      "mëngabèan": 5111,
      "ndian": 5112,
      "bëbed": 5113,
      "bëboo": 5114,
      "bëbendëge": 5115,
      "akëṅa": 5116,
      "angabëm": 5117,
      "angabëgë": 5118,
      "kobò": 5119,
      "kolëge": 5120,
      "korazin": 5121,
      "fubugu": 5122,
      "waand": 5123,
      "dziean": 5124,
      "dëṅ": 5125,
      "dëgë": 5126,
      "mintom": 5127,
      "dzòsò": 5128,
      "dzagan": 5129,
      "dzalëga": 5130,
      "asos": 5131,
      "asaf": 5132,
      "asobo": 5133,
      "kodan": 5134,
      "awoaban": 5135,
      "engoe": 5136,
      "engòṅ": 5137,
      "engoan": 5138,
      "engaman": 5139,
      "engongòl": 5140,
      "zias": 5141,
      "zitè": 5142,
      "zimus": 5143,
      "elod": 5144,
      "elaṅan": 5145,
      "elaṅa": 5146,
      "elfia": 5147,
      "fòl": 5148,
      "mingasò": 5149,
      "mingadugan": 5150,
      "mingadzaṅ": 5151,
      "mingasye": 5152,
      "mingadzëṅ": 5153,
      "mingalëdë": 5154,
      "mingakuan": 5155,
      "mingakodeban": 5156,
      "mingavëëban": 5157,
      "mingabomë": 5158,
      "mingabugi": 5159,
      "mingatsaa": 5160,
      "babëdzan": 5161,
      "ongadzoe": 5162,
      "ongadzie": 5163,
      "ongakui": 5164,
      "ongadugan": 5165,
      "ongatòbò": 5166,
      "ongayëgëlë": 5167,
      "ongatele": 5168,
      "ongabaala": 5169,
      "ongalod": 5170,
      "ongatsig": 5171,
      "ongabòòlò": 5172,
      "ongakomëzan": 5173,
      "ongafyè": 5174,
      "tsigan": 5175,
      "tsidëgan": 5176,
      "mbindan": 5177,
      "bëngabëlan": 5178,
      "bingaku": 5179,
      "bingakë": 5180,
      "bingakòbò": 5181,
      "bingadiṅ": 5182,
      "bingadaṅ": 5183,
      "bingalèè": 5184,
      "bingafaè": 5185,
      "bingabyali": 5186,
      "engazu": 5187,
      "engadzie": 5188,
      "engatari": 5189,
      "engatoban": 5190,
      "engakòn": 5191,
      "engafaè": 5192,
      "engavëëban": 5193,
      "engatindi": 5194,
      "engabui": 5195,
      "engafëdan": 5196,
      "mëkòṅ": 5197,
      "mëkèè": 5198,
      "mëkyëbe": 5199,
      "mëkyebe": 5200,
      "par": 5201,
      "pater": 5202,
      "paradis": 5203,
      "loya": 5204,
      "loṅan": 5205,
      "duu": 5206,
      "duman": 5207,
      "robo": 5208,
      "boo": 5209,
      "eves": 5210,
      "sali": 5211,
      "asòg": 5212,
      "asòm": 5213,
      "asòli": 5214,
      "asòdan": 5215,
      "asòlò": 5216,
      "toṅan": 5217,
      "ndëtëg": 5218,
      "yanaṅ": 5219,
      "yanòṅ": 5220,
      "yanyian": 5221,
      "yanyiṅ": 5222,
      "zëg": 5223,
      "akusu": 5224,
      "akudu": 5225,
      "akubu": 5226,
      "bubi": 5227,
      "budi": 5228,
      "buli": 5229,
      "nkug": 5230,
      "nkogëlan": 5231,
      "bibombo": 5232,
      "bibendëge": 5233,
      "mëlumbu": 5234,
      "eyëmë": 5235,
      "sosten": 5236,
      "tuga": 5237,
      "wayiyi": 5238,
      "telegan": 5239,
      "akaègè": 5240,
      "akaèn": 5241,
      "akadëga": 5242,
      "akaègi": 5243,
      "akadëgë": 5244,
      "bidibiga": 5245,
      "afe": 5246,
      "afat": 5247,
      "afolo": 5248,
      "afòṅòlò": 5249,
      "afuguzu": 5250,
      "kpanya": 5251,
      "këlëban": 5252,
      "abelë": 5253,
      "abedëge": 5254,
      "nloṅo": 5255,
      "ayenan": 5256,
      "abisi": 5257,
      "abiud": 5258,
      "nkada": 5259,
      "atie": 5260,
      "atias": 5261,
      "erts": 5262,
      "mianyian": 5263,
      "eligi": 5264,
      "eliud": 5265,
      "eligidi": 5266,
      "mëbe": 5267,
      "vian": 5268,
      "vini": 5269,
      "angavëëban": 5270,
      "angabulu": 5271,
      "angabyandi": 5272,
      "angaboman": 5273,
      "angabomban": 5274,
      "batè": 5275,
      "batòṅ": 5276,
      "batsam": 5277,
      "batsag": 5278,
      "wome": 5279,
      "bëkoe": 5280,
      "bëkyëbë": 5281,
      "bëkele": 5282,
      "òni": 5283,
      "amëza": 5284,
      "kombo": 5285,
      "wòṅan": 5286,
      "bëbedëge": 5287,
      "bëngandëgëlë": 5288,
      "ngongogë": 5289,
      "aluu": 5290,
      "aluugu": 5291,
      "efanga": 5292,
      "efòg": 5293,
      "afubugu": 5294,
      "tsendëge": 5295,
      "sabbas": 5296,
      "mibòdò": 5297,
      "angalomban": 5298,
      "mbonde": 5299,
      "adii": 5300,
      "adiban": 5301,
      "adigi": 5302,
      "vòbi": 5303,
      "yangayëmban": 5304,
      "angul": 5305,
      "angaman": 5306,
      "angunda": 5307,
      "angamiam": 5308,
      "barsabbas": 5309,
      "mëbòban": 5310,
      "mkpëgë": 5311,
      "mibëlëgë": 5312,
      "bëngayia": 5313,
      "bëngayidan": 5314,
      "pisidia": 5315,
      "ṅyëgele": 5316,
      "angasòdan": 5317,
      "woagan": 5318,
      "vuan": 5319,
      "bëmban": 5320,
      "bëmbas": 5321,
      "ndutum": 5322,
      "ayëbëgë": 5323,
      "obòd": 5324,
      "otuni": 5325,
      "bianaṅ": 5326,
      "bianyëb": 5327,
      "biandëgëlë": 5328,
      "yabende": 5329,
      "yabyali": 5330,
      "yaboman": 5331,
      "obui": 5332,
      "obende": 5333,
      "mabòban": 5334,
      "bibòd": 5335,
      "masole": 5336,
      "kanaan": 5337,
      "kainam": 5338,
      "muzias": 5339,
      "ekyëbëgë": 5340,
      "mëlen": 5341,
      "mëlodo": 5342,
      "asoege": 5343,
      "ekongo": 5344,
      "okëkamba": 5345,
      "bëfëmë": 5346,
      "bëfëdë": 5347,
      "miakus": 5348,
      "miakyëbë": 5349,
      "miakag": 5350,
      "miakòṅan": 5351,
      "bësaman": 5352,
      "bësode": 5353,
      "bësyeban": 5354,
      "angaloeban": 5355,
      "aloege": 5356,
      "asiligi": 5357,
      "onezimus": 5358,
      "yosafat": 5359,
      "mëtsò": 5360,
      "ntòsan": 5361,
      "mëkub": 5362,
      "mëkul": 5363,
      "dzaaga": 5364,
      "mëbonde": 5365,
      "akògò": 5366,
      "mëbèan": 5367,
      "mgbalan": 5368,
      "mbaalan": 5369,
      "mingamana": 5370,
      "minganyiṅ": 5371,
      "ebòdò": 5372,
      "ebòbòg": 5373,
      "bitala": 5374,
      "masòg": 5375,
      "tiigi": 5376,
      "aram": 5377,
      "aret": 5378,
      "arkipus": 5379,
      "obëlan": 5380,
      "ayëdëgan": 5381,
      "ayëgële": 5382,
      "betfage": 5383,
      "evëë": 5384,
      "evëlë": 5385,
      "abaè": 5386,
      "bëmbëgë": 5387,
      "bavëgan": 5388,
      "etii": 5389,
      "etiopi": 5390,
      "kpëgëlë": 5391,
      "mbanan": 5392,
      "mbanda": 5393,
      "ndzòmbò": 5394,
      "bikanga": 5395,
      "bikug": 5396,
      "bikama": 5397,
      "ongaman": 5398,
      "ongola": 5399,
      "ongoge": 5400,
      "ekat": 5401,
      "mëfol": 5402,
      "mëfodan": 5403,
      "angakud": 5404,
      "minnomo": 5405,
      "ayegëlë": 5406,
      "mibële": 5407,
      "bivula": 5408,
      "bivundu": 5409,
      "angakaṅ": 5410,
      "angakaban": 5411,
      "bëngadig": 5412,
      "tsigiban": 5413,
      "nsògan": 5414,
      "ovangul": 5415,
      "mifëdë": 5416,
      "yabòli": 5417,
      "sikem": 5418,
      "angadiṅa": 5419,
      "angasyeban": 5420,
      "biabòd": 5421,
      "farès": 5422,
      "evin": 5423,
      "salmen": 5424,
      "wakoman": 5425,
      "wakòṅan": 5426,
      "wakani": 5427,
      "wakpèè": 5428,
      "bësòg": 5429,
      "bësòmbòg": 5430,
      "bëkaè": 5431,
      "bëkalan": 5432,
      "bëkara": 5433,
      "bëngaloeban": 5434,
      "enòṅò": 5435,
      "yoṅolo": 5436,
      "tindigi": 5437,
      "akiègè": 5438,
      "mitòbògò": 5439,
      "yoram": 5440,
      "tinte": 5441,
      "ebii": 5442,
      "bikop": 5443,
      "asugu": 5444,
      "aluguban": 5445,
      "bëkusu": 5446,
      "bëkuligi": 5447,
      "bëluu": 5448,
      "binganòṅ": 5449,
      "bingum": 5450,
      "binganaṅ": 5451,
      "dzogobo": 5452,
      "ekias": 5453,
      "ewuma": 5454,
      "forus": 5455,
      "okene": 5456,
      "okpaèn": 5457,
      "ovëë": 5458,
      "bëdiakon": 5459,
      "bëfudigi": 5460,
      "bitul": 5461,
      "biakaman": 5462,
      "biakaban": 5463,
      "mëmbarëga": 5464,
      "ongasòli": 5465,
      "babënyòṅa": 5466,
      "asigan": 5467,
      "okònò": 5468,
      "anyaa": 5469,
      "wavëg": 5470,
      "bëngakaban": 5471,
      "bëngakèè": 5472,
      "bëngakele": 5473,
      "bëngakòṅan": 5474,
      "ayiigi": 5475,
      "apolos": 5476,
      "fuguzan": 5477,
      "bihëgëlë": 5478,
      "babom": 5479,
      "babyandi": 5480,
      "mësòlò": 5481,
      "mësoeban": 5482,
      "angatilban": 5483,
      "agar": 5484,
      "agabus": 5485,
      "adugu": 5486,
      "nsanan": 5487,
      "obila": 5488,
      "otòbògò": 5489,
      "mikael": 5490,
      "bisòb": 5491,
      "bakèè": 5492,
      "abugëban": 5493,
      "atubu": 5494,
      "avul": 5495,
      "avolo": 5496,
      "ayoṅo": 5497,
      "mezo": 5498,
      "nlui": 5499,
      "nloan": 5500,
      "nlonga": 5501,
      "okuban": 5502,
      "ṅëna": 5503,
      "bindigan": 5504,
      "abomë": 5505,
      "akpèè": 5506,
      "zebulon": 5507,
      "atelëge": 5508,
      "bëtarigi": 5509,
      "miëngëlë": 5510,
      "bivëë": 5511,
      "mënyuṅ": 5512,
      "mattan": 5513,
      "magdala": 5514,
      "fëfëlë": 5515,
      "asubugu": 5516,
      "bëngakud": 5517,
      "asiege": 5518,
      "eyòn": 5519,
      "ovolan": 5520,
      "bëkii": 5521,
      "bëkiligi": 5522,
      "bifumu": 5523,
      "biboga": 5524,
      "sipra": 5525,
      "pafos": 5526,
      "akpëlë": 5527,
      "obobòd": 5528,
      "andëmë": 5529,
      "natanael": 5530,
      "miabuni": 5531,
      "mimfèd": 5532,
      "bitandak": 5533,
      "tertulus": 5534,
      "tuṅulu": 5535,
      "tsasan": 5536,
      "ayenëṅe": 5537,
      "ekudëga": 5538,
      "epafrodi": 5539,
      "biabëg": 5540,
      "bëngasyeban": 5541,
      "tadeus": 5542,
      "sarda": 5543,
      "sardis": 5544,
      "mattat": 5545,
      "mattatias": 5546,
      "galatika": 5547,
      "adzuugi": 5548,
      "ezòb": 5549,
      "ezekias": 5550,
      "trofim": 5551,
      "bësuman": 5552,
      "bëlaṅa": 5553,
      "bimgbëm": 5554,
      "bikuda": 5555,
      "mëkalëga": 5556,
      "mëfudigi": 5557,
      "angabumi": 5558,
      "bëngatòban": 5559,
      "manasse": 5560,
      "ebudu": 5561,
      "engâtindë": 5562,
      "nikolas": 5563,
      "elunga": 5564,
      "gamaliel": 5565,
      "kenkrea": 5566,
      "manëṅan": 5567,
      "ndzodzongo": 5568,
      "puplius": 5569,
      "anyama": 5570,
      "bëtèè": 5571,
      "bënyaban": 5572,
      "bëwòbògò": 5573,
      "mihaban": 5574,
      "mindidiṅ": 5575,
      "mifono": 5576,
      "ndugudu": 5577,
      "bibëbëga": 5578,
      "bitutuga": 5579,
      "bikpële": 5580,
      "mëdiga": 5581,
      "matea": 5582,
      "mavuu": 5583,
      "kilomera": 5584,
      "bëngatubulu": 5585,
      "mvomvòm": 5586,
      "minkëkëṅ": 5587,
      "kòrò": 5588,
      "sadok": 5589,
      "ermès": 5590,
      "ayëlëgë": 5591,
      "arimatea": 5592,
      "ahim": 5593,
      "befarisea": 5594,
      "elëlëb": 5595,
      "edzëdzala": 5596,
      "ewonëban": 5597,
      "faige": 5598,
      "golgota": 5599,
      "mmiaman": 5600,
      "ongëmë": 5601,
      "ondondò": 5602,
      "potamia": 5603,
      "smirna": 5604,
      "trif": 5605,
      "yoatam": 5606,
      "zelot": 5607,
      "bëlindigi": 5608,
      "bëdòò": 5609,
      "miṅyëyëm": 5610,
      "aineas": 5611,
      "bitinia": 5612,
      "bifofodan": 5613,
      "mëliṅëna": 5614,
      "yayëlë": 5615,
      "gabriel": 5616,
      "sikulu": 5617,
      "sinagoge": 5618,
      "tetrarka": 5619,
      "lëmbòban": 5620,
      "etotog": 5621,
      "minkabag": 5622,
      "almosen": 5623,
      "onesiforus": 5624,
      "filadelfia": 5625,
      "lukania": 5626,
      "zitèb": 5627,
      "roboam": 5628,
      "ertsenglès": 5629,
      "ngongogële": 5630,
      "bëmbasana": 5631,
      "etiopia": 5632,
      "mezopotamia": 5633,
      "epafroditus": 5634,
      "engâtindëban": 5635,
      "';": 5636,
      ",'": 5637,
      ".-": 5638,
      "az": 5639,
      "aya": 5640,
      "aug": 5641,
      "atë": 5642,
      "aha": 5643,
      "afi": 5644,
      "ahala": 5645,
      "adze": 5646,
      "avoe": 5647,
      "aten": 5648,
      "aangakui": 5649,
      "ayab": 5650,
      "abaloe": 5651,
      "abag": 5652,
      "aangabi": 5653,
      "akiṅa": 5654,
      "afas": 5655,
      "ayaman": 5656,
      "azer": 5657,
      "ayaaban": 5658,
      "avuman": 5659,
      "adzib": 5660,
      "avaaban": 5661,
      "asimba": 5662,
      "adzaṅa": 5663,
      "adzëman": 5664,
      "avòligi": 5665,
      "ahe": 5666,
      "ayaa": 5667,
      "adzëban": 5668,
      "adzibigi": 5669,
      "alëbë": 5670,
      "afag": 5671,
      "afala": 5672,
      "avòd": 5673,
      "aangasie": 5674,
      "afimi": 5675,
      "adzëmë": 5676,
      "awaa": 5677,
      "afia": 5678,
      "adëmëlë": 5679,
      "adzòsò": 5680,
      "br": 5681,
      "bol": 5682,
      "bon": 5683,
      "besë": 5684,
      "benë": 5685,
      "beli": 5686,
      "bele": 5687,
      "boman": 5688,
      "bebe": 5689,
      "blas": 5690,
      "bevòg": 5691,
      "bulugan": 5692,
      "dus": 5693,
      "des": 5694,
      "dòg": 5695,
      "deka": 5696,
      "dokia": 5697,
      "dru": 5698,
      "eh": 5699,
      "ep": 5700,
      "ena": 5701,
      "eya": 5702,
      "eod": 5703,
      "eye": 5704,
      "esu": 5705,
      "ela": 5706,
      "eyen": 5707,
      "emò": 5708,
      "eyëbë": 5709,
      "ewog": 5710,
      "engò": 5711,
      "enyi": 5712,
      "efi": 5713,
      "ekad": 5714,
      "edug": 5715,
      "eas": 5716,
      "edugan": 5717,
      "ekod": 5718,
      "elò": 5719,
      "enam": 5720,
      "ewò": 5721,
      "elès": 5722,
      "efidi": 5723,
      "ekogëlan": 5724,
      "ebëbè": 5725,
      "emian": 5726,
      "ehi": 5727,
      "edzoge": 5728,
      "ewulu": 5729,
      "edibi": 5730,
      "epi": 5731,
      "eyon": 5732,
      "ewogo": 5733,
      "ebian": 5734,
      "enyu": 5735,
      "ekodeban": 5736,
      "ebas": 5737,
      "emiama": 5738,
      "ebëbëgë": 5739,
      "eyene": 5740,
      "ekulan": 5741,
      "etëgë": 5742,
      "enyëb": 5743,
      "ezer": 5744,
      "edzaag": 5745,
      "ekomban": 5746,
      "enamba": 5747,
      "eyoo": 5748,
      "edzëman": 5749,
      "ewulugu": 5750,
      "eze": 5751,
      "ekònò": 5752,
      "eyaa": 5753,
      "eyenëban": 5754,
      "edzuga": 5755,
      "ezëzaṅ": 5756,
      "elëndë": 5757,
      "eyoṅo": 5758,
      "elada": 5759,
      "ewogëban": 5760,
      "edzòlan": 5761,
      "edzalëga": 5762,
      "efòl": 5763,
      "ewoagan": 5764,
      "fod": 5765,
      "fte": 5766,
      "fak": 5767,
      "fende": 5768,
      "fle": 5769,
      "fyègè": 5770,
      "fèè": 5771,
      "fyaṅan": 5772,
      "fogo": 5773,
      "falek": 5774,
      "gr": 5775,
      "gam": 5776,
      "get": 5777,
      "ges": 5778,
      "gon": 5779,
      "ged": 5780,
      "gzë": 5781,
      "gene": 5782,
      "gbël": 5783,
      "genes": 5784,
      "hòg": 5785,
      "hel": 5786,
      "hana": 5787,
      "hèd": 5788,
      "hele": 5789,
      "hum": 5790,
      "hebrea": 5791,
      "hermès": 5792,
      "in": 5793,
      "ifë": 5794,
      "iban": 5795,
      "ili": 5796,
      "ias": 5797,
      "iel": 5798,
      "idu": 5799,
      "itu": 5800,
      "ibè": 5801,
      "iona": 5802,
      "koa": 5803,
      "kes": 5804,
      "kyègè": 5805,
      "klo": 5806,
      "kloe": 5807,
      "ked": 5808,
      "kolo": 5809,
      "kaṅa": 5810,
      "keva": 5811,
      "kela": 5812,
      "lma": 5813,
      "langa": 5814,
      "lui": 5815,
      "langabë": 5816,
      "lamana": 5817,
      "lkuma": 5818,
      "langâ": 5819,
      "lenes": 5820,
      "lzëg": 5821,
      "mna": 5822,
      "met": 5823,
      "mend": 5824,
      "mfò": 5825,
      "maṅan": 5826,
      "mea": 5827,
      "mulu": 5828,
      "molo": 5829,
      "mele": 5830,
      "meti": 5831,
      "medi": 5832,
      "menyii": 5833,
      "metu": 5834,
      "mebè": 5835,
      "melè": 5836,
      "mangasie": 5837,
      "mfubugan": 5838,
      "mengâ": 5839,
      "mkpaèn": 5840,
      "mgbël": 5841,
      "nnyè": 5842,
      "ndzi": 5843,
      "ndzë": 5844,
      "non": 5845,
      "naṅan": 5846,
      "nea": 5847,
      "nèè": 5848,
      "nnen": 5849,
      "ner": 5850,
      "nsòò": 5851,
      "nten": 5852,
      "nia": 5853,
      "ndzaa": 5854,
      "nsòm": 5855,
      "nnòṅan": 5856,
      "ndzogan": 5857,
      "nsum": 5858,
      "ndzaman": 5859,
      "nkiè": 5860,
      "ndziean": 5861,
      "or": 5862,
      "oya": 5863,
      "oye": 5864,
      "ofë": 5865,
      "obia": 5866,
      "ofu": 5867,
      "osus": 5868,
      "odzo": 5869,
      "oyo": 5870,
      "oyëbë": 5871,
      "owu": 5872,
      "onyiṅ": 5873,
      "obëb": 5874,
      "oyaè": 5875,
      "odzaṅ": 5876,
      "ozë": 5877,
      "oyënë": 5878,
      "okoan": 5879,
      "otëbë": 5880,
      "otari": 5881,
      "odzug": 5882,
      "ondëm": 5883,
      "obie": 5884,
      "okom": 5885,
      "otye": 5886,
      "obòòlò": 5887,
      "oyalan": 5888,
      "otan": 5889,
      "okuan": 5890,
      "otyan": 5891,
      "ovu": 5892,
      "odzaè": 5893,
      "onyie": 5894,
      "oogo": 5895,
      "osie": 5896,
      "ovòli": 5897,
      "obili": 5898,
      "obag": 5899,
      "okaman": 5900,
      "oyënan": 5901,
      "oyene": 5902,
      "opas": 5903,
      "odzaa": 5904,
      "ofyè": 5905,
      "odzibi": 5906,
      "odzëṅë": 5907,
      "ondaman": 5908,
      "ondëgëlë": 5909,
      "ovus": 5910,
      "otsigi": 5911,
      "otòm": 5912,
      "otëgë": 5913,
      "ofon": 5914,
      "olëb": 5915,
      "otsaman": 5916,
      "otala": 5917,
      "onyiṅi": 5918,
      "odzaag": 5919,
      "onamba": 5920,
      "otubu": 5921,
      "obob": 5922,
      "oyole": 5923,
      "ondòṅ": 5924,
      "odzimbi": 5925,
      "ofidigi": 5926,
      "olëdëgë": 5927,
      "oyedëgan": 5928,
      "otyege": 5929,
      "osii": 5930,
      "oyëbëgë": 5931,
      "onyaag": 5932,
      "ongëlë": 5933,
      "otsam": 5934,
      "osiṅi": 5935,
      "okodëge": 5936,
      "onyëbë": 5937,
      "oviege": 5938,
      "oyimbi": 5939,
      "obaa": 5940,
      "omëban": 5941,
      "obuli": 5942,
      "pli": 5943,
      "pos": 5944,
      "pta": 5945,
      "pon": 5946,
      "pata": 5947,
      "postel": 5948,
      "ptol": 5949,
      "pozu": 5950,
      "pken": 5951,
      "rod": 5952,
      "rma": 5953,
      "rki": 5954,
      "rban": 5955,
      "ret": 5956,
      "ros": 5957,
      "rat": 5958,
      "rama": 5959,
      "ron": 5960,
      "reb": 5961,
      "rrus": 5962,
      "rtu": 5963,
      "rami": 5964,
      "roni": 5965,
      "rne": 5966,
      "roda": 5967,
      "rsius": 5968,
      "rkas": 5969,
      "resa": 5970,
      "so": 5971,
      "st": 5972,
      "sma": 5973,
      "sen": 5974,
      "set": 5975,
      "sem": 5976,
      "stoa": 5977,
      "senë": 5978,
      "samos": 5979,
      "sand": 5980,
      "sombòg": 5981,
      "seme": 5982,
      "sper": 5983,
      "sobo": 5984,
      "sop": 5985,
      "saṅëban": 5986,
      "sosi": 5987,
      "sèan": 5988,
      "skeva": 5989,
      "tos": 5990,
      "tsa": 5991,
      "tole": 5992,
      "tone": 5993,
      "toman": 5994,
      "tome": 5995,
      "uk": 5996,
      "uli": 5997,
      "uda": 5998,
      "udu": 5999,
      "uria": 6000,
      "uuban": 6001,
      "ubug": 6002,
      "udas": 6003,
      "ubim": 6004,
      "urban": 6005,
      "vug": 6006,
      "vul": 6007,
      "vob": 6008,
      "wan": 6009,
      "wonga": 6010,
      "woo": 6011,
      "wakode": 6012,
      "woṅ": 6013,
      "woban": 6014,
      "wabè": 6015,
      "wabodo": 6016,
      "wandzë": 6017,
      "wabugëban": 6018,
      "yam": 6019,
      "yai": 6020,
      "yog": 6021,
      "yol": 6022,
      "yòm": 6023,
      "yèt": 6024,
      "yoda": 6025,
      "zoe": 6026,
      "zab": 6027,
      "zòṅ": 6028,
      "zes": 6029,
      "zaias": 6030,
      "zabel": 6031,
      "̂fadi": 6032,
      "̂mëm": 6033,
      "̂dzuuban": 6034,
      "”.": 6035,
      "ënë": 6036,
      "ëlò": 6037,
      "ëbo": 6038,
      "òban": 6039,
      "òmò": 6040,
      "anoe": 6041,
      "anda": 6042,
      "anyëbë": 6043,
      "anat": 6044,
      "anta": 6045,
      "ankad": 6046,
      "angëlë": 6047,
      "ansòò": 6048,
      "anaṅa": 6049,
      "anyëbe": 6050,
      "anetus": 6051,
      "bëg": 6052,
      "bëdz": 6053,
      "bënd": 6054,
      "bëye": 6055,
      "bëyë": 6056,
      "bëwa": 6057,
      "bëbod": 6058,
      "bëfu": 6059,
      "bëkò": 6060,
      "bëmòn": 6061,
      "bëdug": 6062,
      "bëyaè": 6063,
      "bësòṅ": 6064,
      "bëfidi": 6065,
      "bëmvo": 6066,
      "bëtu": 6067,
      "bëtsog": 6068,
      "bëyè": 6069,
      "bëge": 6070,
      "bënka": 6071,
      "bëmoe": 6072,
      "bëlod": 6073,
      "bëfam": 6074,
      "bëts": 6075,
      "bëwulu": 6076,
      "bëdibi": 6077,
      "bësabbat": 6078,
      "bëvu": 6079,
      "bënyu": 6080,
      "bëtòb": 6081,
      "bëtag": 6082,
      "bëwòman": 6083,
      "bëtòṅ": 6084,
      "bëkulan": 6085,
      "bëdzibi": 6086,
      "bëkodogo": 6087,
      "bëtoya": 6088,
      "bëfubu": 6089,
      "bëtsende": 6090,
      "bëdzugi": 6091,
      "bëfulan": 6092,
      "bëtuni": 6093,
      "bëyëgan": 6094,
      "bëkani": 6095,
      "bëvaan": 6096,
      "bënyëb": 6097,
      "bësuan": 6098,
      "bëdzëb": 6099,
      "bëtala": 6100,
      "bëdzòs": 6101,
      "bëdòkten": 6102,
      "bëfo": 6103,
      "bëmëm": 6104,
      "bëdzaṅa": 6105,
      "bëfugu": 6106,
      "bëwo": 6107,
      "bëyole": 6108,
      "bëwulugu": 6109,
      "bënyoa": 6110,
      "bëyenë": 6111,
      "bëyëdan": 6112,
      "bëkanda": 6113,
      "bëfidigi": 6114,
      "bëkpè": 6115,
      "bëliṅan": 6116,
      "bëngòmëna": 6117,
      "bëtsigëban": 6118,
      "bëne": 6119,
      "bëkpèè": 6120,
      "bëyaa": 6121,
      "bëyono": 6122,
      "bësugu": 6123,
      "bëtogan": 6124,
      "bëwolo": 6125,
      "bëbaè": 6126,
      "bëmvë": 6127,
      "bëkòl": 6128,
      "bëtui": 6129,
      "bëvom": 6130,
      "bëfuban": 6131,
      "bëtiṅ": 6132,
      "bëëgan": 6133,
      "bëyem": 6134,
      "bëkristen": 6135,
      "bëfububan": 6136,
      "bënte": 6137,
      "bëyèg": 6138,
      "bëëgë": 6139,
      "bëṅyi": 6140,
      "bëmate": 6141,
      "bëwaa": 6142,
      "bësiigi": 6143,
      "bësuguzu": 6144,
      "bëwonëṅe": 6145,
      "bënkad": 6146,
      "bënzë": 6147,
      "bëvuṅu": 6148,
      "bëbaa": 6149,
      "bëdzòsò": 6150,
      "bëdzalëga": 6151,
      "bëtsigan": 6152,
      "bëduu": 6153,
      "bëkpëgëlë": 6154,
      "bëyèt": 6155,
      "nama": 6156,
      "naman": 6157,
      "natus": 6158,
      "natam": 6159,
      "namëng": 6160,
      "nazo": 6161,
      "nakor": 6162,
      "nazara": 6163,
      "nahum": 6164,
      "narki": 6165,
      "èr": 6166,
      "èra": 6167,
      "amam": 6168,
      "amanë": 6169,
      "amlan": 6170,
      "amfi": 6171,
      "amza": 6172,
      "ambëgë": 6173,
      "amvëë": 6174,
      "amboo": 6175,
      "ampli": 6176,
      "miam": 6177,
      "miku": 6178,
      "miban": 6179,
      "mimbë": 6180,
      "midzo": 6181,
      "minti": 6182,
      "miyean": 6183,
      "miamana": 6184,
      "mikala": 6185,
      "misili": 6186,
      "mitu": 6187,
      "mikoan": 6188,
      "miyè": 6189,
      "mitele": 6190,
      "mianyu": 6191,
      "mitari": 6192,
      "mikode": 6193,
      "mitil": 6194,
      "milëdë": 6195,
      "mindëm": 6196,
      "miyaṅan": 6197,
      "mitsig": 6198,
      "milugu": 6199,
      "mibòòlò": 6200,
      "miyedan": 6201,
      "miyalan": 6202,
      "miligi": 6203,
      "misòò": 6204,
      "mivol": 6205,
      "mikuan": 6206,
      "mimfuban": 6207,
      "mityan": 6208,
      "mimkp": 6209,
      "mindiṅ": 6210,
      "mivaè": 6211,
      "miwoa": 6212,
      "miabye": 6213,
      "miyon": 6214,
      "miluman": 6215,
      "misòman": 6216,
      "midzèè": 6217,
      "midzaè": 6218,
      "mimbòn": 6219,
      "misie": 6220,
      "milëban": 6221,
      "mimvòt": 6222,
      "milaṅan": 6223,
      "midzibi": 6224,
      "mitii": 6225,
      "mitsende": 6226,
      "miwaè": 6227,
      "mikòbògò": 6228,
      "mibede": 6229,
      "miangaku": 6230,
      "miabëlan": 6231,
      "mifadi": 6232,
      "mivoan": 6233,
      "mitsaman": 6234,
      "minyëb": 6235,
      "miyaman": 6236,
      "mibanda": 6237,
      "mikalan": 6238,
      "midzëb": 6239,
      "mitala": 6240,
      "midzaag": 6241,
      "midzòs": 6242,
      "miabam": 6243,
      "miabobolo": 6244,
      "milaban": 6245,
      "miyoo": 6246,
      "miwo": 6247,
      "miwon": 6248,
      "miyii": 6249,
      "mikanga": 6250,
      "miabug": 6251,
      "midzimbi": 6252,
      "mifidigi": 6253,
      "miyedëgan": 6254,
      "mimfëg": 6255,
      "midzugulu": 6256,
      "midzòdiban": 6257,
      "mikaban": 6258,
      "miwogan": 6259,
      "minyaag": 6260,
      "mibulu": 6261,
      "miyia": 6262,
      "mingëlë": 6263,
      "mitarigi": 6264,
      "mimvòd": 6265,
      "mikè": 6266,
      "midzuban": 6267,
      "mimbëlë": 6268,
      "mibomo": 6269,
      "miasuu": 6270,
      "mikomodo": 6271,
      "mifòmbògò": 6272,
      "mikomo": 6273,
      "minyuu": 6274,
      "minyëbë": 6275,
      "miyoṅo": 6276,
      "mikudu": 6277,
      "miwuban": 6278,
      "mikandan": 6279,
      "mikodëban": 6280,
      "mibaman": 6281,
      "mibulugu": 6282,
      "midabë": 6283,
      "miwonòṅ": 6284,
      "miamvaman": 6285,
      "miwuwub": 6286,
      "milumëṅan": 6287,
      "mikolëge": 6288,
      "mifubugu": 6289,
      "miduu": 6290,
      "miabelë": 6291,
      "midzaaga": 6292,
      "mitindigi": 6293,
      "mifyaṅan": 6294,
      "mikaṅa": 6295,
      "nge": 6296,
      "ngom": 6297,
      "ngol": 6298,
      "ngun": 6299,
      "dzè": 6300,
      "dzègè": 6301,
      "ais": 6302,
      "ainon": 6303,
      "nyaṅ": 6304,
      "nyen": 6305,
      "nyoan": 6306,
      "nyaman": 6307,
      "ṅsë": 6308,
      "ṅlë": 6309,
      "ṅwaan": 6310,
      "ṅyedan": 6311,
      "ṅyaan": 6312,
      "ṅnòṅò": 6313,
      "ṅyon": 6314,
      "ṅnyu": 6315,
      "ṅdiṅan": 6316,
      "ṅyaman": 6317,
      "ṅnyiṅan": 6318,
      "ṅnòṅan": 6319,
      "ṅyoan": 6320,
      "ṅgele": 6321,
      "ṅdoan": 6322,
      "ṅyebë": 6323,
      "ṅyangan": 6324,
      "ṅyoyòg": 6325,
      "ṅloṅan": 6326,
      "ṅsèan": 6327,
      "ndog": 6328,
      "ndus": 6329,
      "ndaṅan": 6330,
      "ndugan": 6331,
      "bòan": 6332,
      "bòlan": 6333,
      "bòlò": 6334,
      "big": 6335,
      "bibë": 6336,
      "biṅ": 6337,
      "bimv": 6338,
      "bingë": 6339,
      "biman": 6340,
      "bimò": 6341,
      "biwoe": 6342,
      "bikòbò": 6343,
      "bigi": 6344,
      "biangabë": 6345,
      "bidzie": 6346,
      "bidugan": 6347,
      "biyean": 6348,
      "bidò": 6349,
      "biyëgëlë": 6350,
      "bidzëṅ": 6351,
      "bilom": 6352,
      "bitsog": 6353,
      "bitëbë": 6354,
      "bibaala": 6355,
      "biyaṅan": 6356,
      "bilod": 6357,
      "bikom": 6358,
      "bikòb": 6359,
      "bibòòlò": 6360,
      "biyedan": 6361,
      "biyalan": 6362,
      "binyian": 6363,
      "bilèè": 6364,
      "bikòn": 6365,
      "binòṅò": 6366,
      "bingam": 6367,
      "bidzèè": 6368,
      "binyu": 6369,
      "biambara": 6370,
      "bilad": 6371,
      "bikuli": 6372,
      "bitag": 6373,
      "bidzala": 6374,
      "bibag": 6375,
      "biyënan": 6376,
      "biyene": 6377,
      "biakud": 6378,
      "bitòṅ": 6379,
      "bikulan": 6380,
      "bikuu": 6381,
      "bilaṅan": 6382,
      "bitii": 6383,
      "bikodogo": 6384,
      "bisaman": 6385,
      "bitsende": 6386,
      "biakyëbë": 6387,
      "biyenan": 6388,
      "bikòbògò": 6389,
      "biakuli": 6390,
      "bitaman": 6391,
      "biyili": 6392,
      "bikani": 6393,
      "bilòṅ": 6394,
      "bifas": 6395,
      "bitsaman": 6396,
      "binyëb": 6397,
      "bisuan": 6398,
      "binyiṅi": 6399,
      "biamias": 6400,
      "bilodo": 6401,
      "bimbòd": 6402,
      "biwone": 6403,
      "bimëm": 6404,
      "biabobolo": 6405,
      "biakalan": 6406,
      "bifumi": 6407,
      "biwo": 6408,
      "bimvaman": 6409,
      "biyenë": 6410,
      "biabug": 6411,
      "bitili": 6412,
      "bivie": 6413,
      "bilam": 6414,
      "biyedëgan": 6415,
      "bisusu": 6416,
      "bitum": 6417,
      "biangalod": 6418,
      "bitòbògò": 6419,
      "bisaala": 6420,
      "binyam": 6421,
      "bisugu": 6422,
      "bidzibigi": 6423,
      "binyaag": 6424,
      "bifus": 6425,
      "biwolo": 6426,
      "bibaè": 6427,
      "bifoṅan": 6428,
      "bivom": 6429,
      "bikaè": 6430,
      "bifol": 6431,
      "bikomo": 6432,
      "biviege": 6433,
      "bivòligan": 6434,
      "binada": 6435,
      "bindugëlan": 6436,
      "biabole": 6437,
      "bibana": 6438,
      "bitimiṅi": 6439,
      "bilumëṅan": 6440,
      "bidzaaga": 6441,
      "bifyègè": 6442,
      "biwonga": 6443,
      "binama": 6444,
      "basë": 6445,
      "basi": 6446,
      "baki": 6447,
      "babod": 6448,
      "bafu": 6449,
      "batò": 6450,
      "bahë": 6451,
      "baal": 6452,
      "bafa": 6453,
      "baaban": 6454,
      "badug": 6455,
      "basëm": 6456,
      "badzaṅ": 6457,
      "balò": 6458,
      "badu": 6459,
      "baboe": 6460,
      "batu": 6461,
      "baben": 6462,
      "bavoe": 6463,
      "bavëṅan": 6464,
      "bakus": 6465,
      "batoban": 6466,
      "bavaè": 6467,
      "babe": 6468,
      "bakomëzan": 6469,
      "basigi": 6470,
      "baot": 6471,
      "badzèè": 6472,
      "badzu": 6473,
      "bakodeban": 6474,
      "babag": 6475,
      "babodo": 6476,
      "bakole": 6477,
      "batëg": 6478,
      "balaṅan": 6479,
      "badzibi": 6480,
      "batii": 6481,
      "basòm": 6482,
      "badzugi": 6483,
      "bayëgan": 6484,
      "bayom": 6485,
      "bayag": 6486,
      "bafadi": 6487,
      "bafòmbò": 6488,
      "babug": 6489,
      "bavoan": 6490,
      "badzòs": 6491,
      "bafaṅ": 6492,
      "bafëdan": 6493,
      "babomë": 6494,
      "baaga": 6495,
      "basii": 6496,
      "bafëb": 6497,
      "basaala": 6498,
      "bayëbe": 6499,
      "babaè": 6500,
      "bafala": 6501,
      "baluu": 6502,
      "basoeban": 6503,
      "basëlan": 6504,
      "basogolo": 6505,
      "bafububan": 6506,
      "bafug": 6507,
      "baham": 6508,
      "bavaṅ": 6509,
      "mëmë": 6510,
      "mëla": 6511,
      "mënt": 6512,
      "mëbod": 6513,
      "mëmv": 6514,
      "mëtë": 6515,
      "mënti": 6516,
      "mëdzoe": 6517,
      "mëtègè": 6518,
      "mëgan": 6519,
      "mëdë": 6520,
      "mëdan": 6521,
      "mëyaè": 6522,
      "mëyègè": 6523,
      "mëdò": 6524,
      "mëloe": 6525,
      "mëbu": 6526,
      "mëbye": 6527,
      "mëfëg": 6528,
      "mëtsog": 6529,
      "mëtëbë": 6530,
      "mëdzog": 6531,
      "mëbie": 6532,
      "mëvëṅan": 6533,
      "mëwulu": 6534,
      "mëlèè": 6535,
      "mësòò": 6536,
      "mëvol": 6537,
      "mëkuan": 6538,
      "mëngogëlan": 6539,
      "mëyanga": 6540,
      "mëvaa": 6541,
      "mëkomëzan": 6542,
      "mësigi": 6543,
      "mëngam": 6544,
      "mëbad": 6545,
      "mëtòb": 6546,
      "mëbëbëgë": 6547,
      "mëkada": 6548,
      "mënyë": 6549,
      "mëdzëṅë": 6550,
      "mëtsende": 6551,
      "mëfulan": 6552,
      "mëkòbògò": 6553,
      "mësoan": 6554,
      "mëmbara": 6555,
      "mëtsigi": 6556,
      "mëyëman": 6557,
      "mësole": 6558,
      "mëtin": 6559,
      "mëkalan": 6560,
      "mëtala": 6561,
      "mënamba": 6562,
      "mëvuman": 6563,
      "mësaṅan": 6564,
      "mëtibili": 6565,
      "mëyoo": 6566,
      "mëdzaṅa": 6567,
      "mëwon": 6568,
      "mëfëdan": 6569,
      "mëmvèt": 6570,
      "mëyenë": 6571,
      "mëyëdan": 6572,
      "mëtoṅo": 6573,
      "mëne": 6574,
      "mëbëdë": 6575,
      "mëyëbëgë": 6576,
      "mëyono": 6577,
      "mëdzibigi": 6578,
      "mëyenëban": 6579,
      "mënyaag": 6580,
      "mëṅe": 6581,
      "mëngëlë": 6582,
      "mëkòl": 6583,
      "mëfag": 6584,
      "mëvòd": 6585,
      "mëdo": 6586,
      "mësan": 6587,
      "mëfuban": 6588,
      "mëmbëlë": 6589,
      "mëtëgëlan": 6590,
      "mëbodogo": 6591,
      "mënkad": 6592,
      "mëdzòg": 6593,
      "mëtòbëban": 6594,
      "mëkobò": 6595,
      "mëbëmban": 6596,
      "mëdzogobo": 6597,
      "mëyog": 6598,
      "yad": 6599,
      "yaya": 6600,
      "yasë": 6601,
      "yaaṅ": 6602,
      "yafë": 6603,
      "yayen": 6604,
      "yakò": 6605,
      "yayëbë": 6606,
      "yadzoe": 6607,
      "yatègè": 6608,
      "yadiṅ": 6609,
      "yadzie": 6610,
      "yatoa": 6611,
      "yatòbò": 6612,
      "yayëgëlë": 6613,
      "yaboe": 6614,
      "yaloe": 6615,
      "yakala": 6616,
      "yasili": 6617,
      "yafidi": 6618,
      "yabye": 6619,
      "yakogëlan": 6620,
      "yatele": 6621,
      "yayaṅan": 6622,
      "yayalan": 6623,
      "yavu": 6624,
      "yazombo": 6625,
      "yatoṅ": 6626,
      "yalad": 6627,
      "yavòli": 6628,
      "yakulan": 6629,
      "yadzibi": 6630,
      "yayenan": 6631,
      "yasiṅ": 6632,
      "yasoan": 6633,
      "yadzalëban": 6634,
      "yatsaman": 6635,
      "yawone": 6636,
      "yavaaban": 6637,
      "yabobolo": 6638,
      "yaaga": 6639,
      "yayëdan": 6640,
      "yadzimbi": 6641,
      "yakab": 6642,
      "yasii": 6643,
      "yakpèè": 6644,
      "yadzugulu": 6645,
      "yafuguzu": 6646,
      "yakaban": 6647,
      "yabëki": 6648,
      "yawogan": 6649,
      "yayenëban": 6650,
      "yatsam": 6651,
      "yasoeban": 6652,
      "yafoṅan": 6653,
      "yayëmban": 6654,
      "yatad": 6655,
      "yatsag": 6656,
      "yabèan": 6657,
      "yaloṅëban": 6658,
      "yabudan": 6659,
      "yayombo": 6660,
      "yazon": 6661,
      "yasulan": 6662,
      "yatian": 6663,
      "yabudi": 6664,
      "yaret": 6665,
      "yasper": 6666,
      "odaṅ": 6667,
      "odugu": 6668,
      "odali": 6669,
      "oduuban": 6670,
      "mabi": 6671,
      "maga": 6672,
      "maus": 6673,
      "mari": 6674,
      "maat": 6675,
      "matus": 6676,
      "male": 6677,
      "maabò": 6678,
      "madzie": 6679,
      "mayaè": 6680,
      "masëm": 6681,
      "madò": 6682,
      "makoan": 6683,
      "makode": 6684,
      "mahan": 6685,
      "malëdë": 6686,
      "maangabò": 6687,
      "mavëṅan": 6688,
      "mayalan": 6689,
      "mawulu": 6690,
      "masoe": 6691,
      "makuan": 6692,
      "matoban": 6693,
      "mafudi": 6694,
      "makòn": 6695,
      "maloṅ": 6696,
      "mabe": 6697,
      "matoṅ": 6698,
      "malad": 6699,
      "makuli": 6700,
      "matòb": 6701,
      "madzala": 6702,
      "mabag": 6703,
      "mabodo": 6704,
      "mayënan": 6705,
      "mawum": 6706,
      "madzibi": 6707,
      "malum": 6708,
      "matsende": 6709,
      "matëbëlë": 6710,
      "mayoṅ": 6711,
      "matindi": 6712,
      "mabug": 6713,
      "mavoan": 6714,
      "madzalëban": 6715,
      "mayaaban": 6716,
      "mawone": 6717,
      "madzëman": 6718,
      "mayëdan": 6719,
      "makpè": 6720,
      "masii": 6721,
      "madzugulu": 6722,
      "mabam": 6723,
      "mabulu": 6724,
      "madian": 6725,
      "madzëm": 6726,
      "matsas": 6727,
      "masoeban": 6728,
      "mabeme": 6729,
      "masingi": 6730,
      "madzëmë": 6731,
      "matobe": 6732,
      "madam": 6733,
      "mavòbi": 6734,
      "nyèṅ": 6735,
      "ngabë": 6736,
      "yed": 6737,
      "yera": 6738,
      "yedëban": 6739,
      "yefte": 6740,
      "yezabel": 6741,
      "yëban": 6742,
      "yëyean": 6743,
      "yëdëgan": 6744,
      "yëgële": 6745,
      "sud": 6746,
      "suban": 6747,
      "suṅan": 6748,
      "sume": 6749,
      "subugan": 6750,
      "ndòngò": 6751,
      "gad": 6752,
      "gao": 6753,
      "gada": 6754,
      "gasò": 6755,
      "gavë": 6756,
      "gayen": 6757,
      "gaza": 6758,
      "gayaè": 6759,
      "gavu": 6760,
      "gakani": 6761,
      "gabanda": 6762,
      "gabam": 6763,
      "gabata": 6764,
      "gâfadi": 6765,
      "sëlë": 6766,
      "sëgëlan": 6767,
      "sëgzë": 6768,
      "sila": 6769,
      "sint": 6770,
      "sinti": 6771,
      "sifen": 6772,
      "sikar": 6773,
      "sitia": 6774,
      "kig": 6775,
      "kis": 6776,
      "kius": 6777,
      "kiri": 6778,
      "kios": 6779,
      "kikus": 6780,
      "kini": 6781,
      "kiebë": 6782,
      "laku": 6783,
      "layen": 6784,
      "ladzoe": 6785,
      "labëlë": 6786,
      "lakad": 6787,
      "lakui": 6788,
      "ladugan": 6789,
      "labëbë": 6790,
      "lasye": 6791,
      "lakoan": 6792,
      "lakode": 6793,
      "lalëdë": 6794,
      "latye": 6795,
      "lakam": 6796,
      "lawoge": 6797,
      "lawulu": 6798,
      "lavol": 6799,
      "labè": 6800,
      "layanga": 6801,
      "laluman": 6802,
      "labad": 6803,
      "latar": 6804,
      "lakulan": 6805,
      "lafyè": 6806,
      "lakyëbë": 6807,
      "lakoe": 6808,
      "layoṅ": 6809,
      "layaman": 6810,
      "ladigi": 6811,
      "lakulëban": 6812,
      "lakaban": 6813,
      "layenëban": 6814,
      "lafala": 6815,
      "lavin": 6816,
      "lasëlan": 6817,
      "ladilan": 6818,
      "layëan": 6819,
      "laham": 6820,
      "lazaias": 6821,
      "angaka": 6822,
      "angadzi": 6823,
      "angayo": 6824,
      "angatègè": 6825,
      "angaboe": 6826,
      "angawò": 6827,
      "angafidi": 6828,
      "angayëmë": 6829,
      "angatsog": 6830,
      "angakòb": 6831,
      "angayanga": 6832,
      "angayaan": 6833,
      "angavogolo": 6834,
      "angazombo": 6835,
      "angabad": 6836,
      "angakodeban": 6837,
      "angadzala": 6838,
      "angadzòdi": 6839,
      "angabodo": 6840,
      "angayënan": 6841,
      "angafaè": 6842,
      "angatòṅ": 6843,
      "angatëg": 6844,
      "angawum": 6845,
      "angalaṅan": 6846,
      "angakyëbë": 6847,
      "angatii": 6848,
      "angalaṅëdan": 6849,
      "angalum": 6850,
      "angafulan": 6851,
      "angadudu": 6852,
      "angatëgë": 6853,
      "angafadi": 6854,
      "angatindi": 6855,
      "angafon": 6856,
      "angasole": 6857,
      "angalëb": 6858,
      "angatsaman": 6859,
      "angasob": 6860,
      "angayaman": 6861,
      "angakalan": 6862,
      "angafaṅ": 6863,
      "angasaṅan": 6864,
      "angasoo": 6865,
      "angalaban": 6866,
      "angafumi": 6867,
      "angatè": 6868,
      "angawodan": 6869,
      "angayëdan": 6870,
      "angadzimbi": 6871,
      "angahëbë": 6872,
      "angakpè": 6873,
      "angatsigëban": 6874,
      "angatum": 6875,
      "angasii": 6876,
      "angafuguzu": 6877,
      "angadzëban": 6878,
      "angatogan": 6879,
      "angafag": 6880,
      "angavin": 6881,
      "angatsam": 6882,
      "angasan": 6883,
      "angatui": 6884,
      "angatëb": 6885,
      "angatad": 6886,
      "angatiṅ": 6887,
      "angasingi": 6888,
      "angadzëmë": 6889,
      "angakomodo": 6890,
      "angatobò": 6891,
      "angadoan": 6892,
      "angalaṅëban": 6893,
      "angasolan": 6894,
      "angasëmë": 6895,
      "angakilan": 6896,
      "angakiègè": 6897,
      "angadali": 6898,
      "angalèd": 6899,
      "angatonde": 6900,
      "angabagban": 6901,
      "angasulan": 6902,
      "angatòbëban": 6903,
      "angatigbi": 6904,
      "angalumbu": 6905,
      "angafuguzan": 6906,
      "angatuṅulu": 6907,
      "angafod": 6908,
      "angalui": 6909,
      "angadzègè": 6910,
      "yid": 6911,
      "yin": 6912,
      "nëṅan": 6913,
      "teudas": 6914,
      "abod": 6915,
      "abom": 6916,
      "abugu": 6917,
      "abuni": 6918,
      "abomban": 6919,
      "abuli": 6920,
      "absint": 6921,
      "ogus": 6922,
      "ogenes": 6923,
      "lësò": 6924,
      "lëmbë": 6925,
      "lëyen": 6926,
      "lëgi": 6927,
      "lëtoa": 6928,
      "lëkëlë": 6929,
      "lëwoge": 6930,
      "lësòò": 6931,
      "lëmbo": 6932,
      "lëkanga": 6933,
      "lëtyege": 6934,
      "lëngan": 6935,
      "lëbëdë": 6936,
      "lëtarigi": 6937,
      "lësoege": 6938,
      "lënada": 6939,
      "lëvini": 6940,
      "ake": 6941,
      "akè": 6942,
      "akoa": 6943,
      "akel": 6944,
      "akulu": 6945,
      "akoman": 6946,
      "akoni": 6947,
      "akòli": 6948,
      "akelëban": 6949,
      "akpaa": 6950,
      "akabëban": 6951,
      "akanda": 6952,
      "fëṅ": 6953,
      "fëgë": 6954,
      "fëdë": 6955,
      "fëṅëlan": 6956,
      "dib": 6957,
      "dimi": 6958,
      "dios": 6959,
      "dimëzan": 6960,
      "diot": 6961,
      "dioni": 6962,
      "diiban": 6963,
      "ntsë": 6964,
      "ntòṅ": 6965,
      "ntëlan": 6966,
      "ntòbò": 6967,
      "ntad": 6968,
      "ntogan": 6969,
      "ntotòm": 6970,
      "wabi": 6971,
      "wasus": 6972,
      "watègè": 6973,
      "wadug": 6974,
      "wayaè": 6975,
      "wadò": 6976,
      "wafò": 6977,
      "wadu": 6978,
      "wasa": 6979,
      "wayè": 6980,
      "watil": 6981,
      "wahan": 6982,
      "wabaala": 6983,
      "wayaṅan": 6984,
      "watye": 6985,
      "wadzoge": 6986,
      "wayedan": 6987,
      "wayalan": 6988,
      "wawoge": 6989,
      "watoan": 6990,
      "wayaan": 6991,
      "wavogolo": 6992,
      "wawoa": 6993,
      "wasubu": 6994,
      "watòb": 6995,
      "wadzala": 6996,
      "watam": 6997,
      "wasie": 6998,
      "wasug": 6999,
      "wayënan": 7000,
      "watëg": 7001,
      "walaṅan": 7002,
      "wadzibi": 7003,
      "walum": 7004,
      "watsende": 7005,
      "wafèd": 7006,
      "wasiṅ": 7007,
      "wafulan": 7008,
      "watsidan": 7009,
      "wasoan": 7010,
      "walug": 7011,
      "wasam": 7012,
      "wavëëban": 7013,
      "wafòmbò": 7014,
      "wafon": 7015,
      "wayaaban": 7016,
      "wasoo": 7017,
      "walaban": 7018,
      "wadig": 7019,
      "wafëdan": 7020,
      "wadzimbi": 7021,
      "wabada": 7022,
      "waangâ": 7023,
      "wasoṅ": 7024,
      "wasigan": 7025,
      "wahëg": 7026,
      "waègi": 7027,
      "wavuma": 7028,
      "wakiègè": 7029,
      "wafum": 7030,
      "wavolo": 7031,
      "wawome": 7032,
      "wafogo": 7033,
      "wavul": 7034,
      "wayëgële": 7035,
      "asuṅ": 7036,
      "asuman": 7037,
      "asulu": 7038,
      "omga": 7039,
      "ombëlë": 7040,
      "ombëmë": 7041,
      "anëṅi": 7042,
      "abëm": 7043,
      "abën": 7044,
      "abëla": 7045,
      "abëgëlë": 7046,
      "abëmba": 7047,
      "olòṅ": 7048,
      "olèè": 7049,
      "olum": 7050,
      "ologo": 7051,
      "olaṅëdan": 7052,
      "olaṅëban": 7053,
      "oligi": 7054,
      "ologus": 7055,
      "ololòṅ": 7056,
      "bëngafu": 7057,
      "bëngadzë": 7058,
      "bëngabëbë": 7059,
      "bëngayègè": 7060,
      "bëngalo": 7061,
      "bëngawò": 7062,
      "bëngayè": 7063,
      "bëngakode": 7064,
      "bëngalod": 7065,
      "bëngaben": 7066,
      "bëngafam": 7067,
      "bëngafudi": 7068,
      "bëngavaè": 7069,
      "bëngasigi": 7070,
      "bëngadzèè": 7071,
      "bëngadzaè": 7072,
      "bëngakodeban": 7073,
      "bëngabòban": 7074,
      "bëngabodo": 7075,
      "bëngakulan": 7076,
      "bëngayëb": 7077,
      "bëngawòbò": 7078,
      "bëngafubu": 7079,
      "bëngadzugi": 7080,
      "bëngafèd": 7081,
      "bëngafëm": 7082,
      "bëngakoe": 7083,
      "bëngalëb": 7084,
      "bëngakub": 7085,
      "bëngakomban": 7086,
      "bëngafaṅ": 7087,
      "bëngasaṅan": 7088,
      "bëngawone": 7089,
      "bëngafumi": 7090,
      "bëngaladan": 7091,
      "bëngatè": 7092,
      "bëngawodan": 7093,
      "bëngabali": 7094,
      "bëngatsigëban": 7095,
      "bëngafëb": 7096,
      "bëngakpèè": 7097,
      "bëngabaè": 7098,
      "bëngalòb": 7099,
      "bëngafyal": 7100,
      "bëngavom": 7101,
      "bëngatëb": 7102,
      "bëngatiiban": 7103,
      "bëngayebë": 7104,
      "bëngakiègè": 7105,
      "bëngatobe": 7106,
      "bëngafè": 7107,
      "bëngahaman": 7108,
      "bëngabagëban": 7109,
      "bëngasuli": 7110,
      "bëngakòòdò": 7111,
      "bëngabuli": 7112,
      "bëngatsigiban": 7113,
      "bëngadzè": 7114,
      "enen": 7115,
      "enos": 7116,
      "endzoe": 7117,
      "endzaan": 7118,
      "enonòṅ": 7119,
      "eneus": 7120,
      "enik": 7121,
      "nyòb": 7122,
      "nyòdi": 7123,
      "kubi": 7124,
      "kusu": 7125,
      "kuban": 7126,
      "kuri": 7127,
      "kudza": 7128,
      "kumaa": 7129,
      "kuligi": 7130,
      "kumba": 7131,
      "kuar": 7132,
      "kurea": 7133,
      "kudëban": 7134,
      "kundus": 7135,
      "mvama": 7136,
      "mvogëlan": 7137,
      "banan": 7138,
      "bandzë": 7139,
      "banoni": 7140,
      "banene": 7141,
      "banòdi": 7142,
      "bandëṅa": 7143,
      "biadi": 7144,
      "biadug": 7145,
      "biasëm": 7146,
      "biadò": 7147,
      "biasili": 7148,
      "biatsog": 7149,
      "biayè": 7150,
      "biatele": 7151,
      "bialëdë": 7152,
      "biatsig": 7153,
      "biavò": 7154,
      "bialig": 7155,
      "biavaè": 7156,
      "biavogolo": 7157,
      "biavu": 7158,
      "bialuman": 7159,
      "biasòman": 7160,
      "biadzu": 7161,
      "biavòli": 7162,
      "biadzibi": 7163,
      "biafubu": 7164,
      "biadzugi": 7165,
      "biatuni": 7166,
      "biadiṅan": 7167,
      "biadudu": 7168,
      "biafadi": 7169,
      "biatimi": 7170,
      "biawone": 7171,
      "biadzëman": 7172,
      "biadzimbi": 7173,
      "biadzugulu": 7174,
      "biavòd": 7175,
      "biasëlan": 7176,
      "biafuban": 7177,
      "biatad": 7178,
      "biasogolo": 7179,
      "biafòṅòlò": 7180,
      "biasas": 7181,
      "biatiṅ": 7182,
      "biayem": 7183,
      "biadzëmë": 7184,
      "biatëgëlan": 7185,
      "biavaṅ": 7186,
      "biahèd": 7187,
      "biatsa": 7188,
      "tëmë": 7189,
      "etòṅ": 7190,
      "etom": 7191,
      "etsigi": 7192,
      "etsam": 7193,
      "etòmò": 7194,
      "mbam": 7195,
      "mbyean": 7196,
      "mbamëna": 7197,
      "ngëb": 7198,
      "ngëngaṅ": 7199,
      "lik": 7200,
      "libia": 7201,
      "lindi": 7202,
      "linus": 7203,
      "lith": 7204,
      "fudëgan": 7205,
      "fumiṅi": 7206,
      "dalma": 7207,
      "sòdan": 7208,
      "rim": 7209,
      "ritus": 7210,
      "mani": 7211,
      "manèè": 7212,
      "mandëgëlë": 7213,
      "manyaman": 7214,
      "manuel": 7215,
      "mandëṅ": 7216,
      "mine": 7217,
      "mindzi": 7218,
      "mindzò": 7219,
      "minlò": 7220,
      "minaṅëdan": 7221,
      "mindzaa": 7222,
      "minkok": 7223,
      "minloman": 7224,
      "minkiè": 7225,
      "kat": 7226,
      "kabinda": 7227,
      "kauda": 7228,
      "dzio": 7229,
      "susana": 7230,
      "tòk": 7231,
      "tòli": 7232,
      "mbëga": 7233,
      "mbëban": 7234,
      "mbëman": 7235,
      "mbëmbe": 7236,
      "landzëki": 7237,
      "landaman": 7238,
      "lanyëb": 7239,
      "landëgëlë": 7240,
      "landëṅ": 7241,
      "vëban": 7242,
      "vëgëlë": 7243,
      "vëbëgan": 7244,
      "vëlëgan": 7245,
      "osam": 7246,
      "osas": 7247,
      "osea": 7248,
      "osoo": 7249,
      "osob": 7250,
      "ostro": 7251,
      "miaki": 7252,
      "miadzë": 7253,
      "mialè": 7254,
      "miasòṅ": 7255,
      "miayègè": 7256,
      "mialo": 7257,
      "miasa": 7258,
      "miatele": 7259,
      "miatari": 7260,
      "miayedan": 7261,
      "miavëṅan": 7262,
      "miasoe": 7263,
      "miayaan": 7264,
      "miavaè": 7265,
      "miabad": 7266,
      "miavòli": 7267,
      "miatie": 7268,
      "miabag": 7269,
      "miafyè": 7270,
      "miasama": 7271,
      "mialum": 7272,
      "miadzugi": 7273,
      "miafèd": 7274,
      "miafulan": 7275,
      "miavus": 7276,
      "miayag": 7277,
      "miafon": 7278,
      "mialòṅ": 7279,
      "miawone": 7280,
      "miatibili": 7281,
      "miavaaban": 7282,
      "miadzëman": 7283,
      "miawodan": 7284,
      "miahëbë": 7285,
      "miavëg": 7286,
      "miatsas": 7287,
      "miadzuban": 7288,
      "miafuban": 7289,
      "miatëgëlan": 7290,
      "miafug": 7291,
      "miafaṅan": 7292,
      "miavolo": 7293,
      "miabara": 7294,
      "miayëyëm": 7295,
      "miayed": 7296,
      "miayëyean": 7297,
      "ntil": 7298,
      "ntius": 7299,
      "ntigëdan": 7300,
      "ntindan": 7301,
      "ulon": 7302,
      "kòdan": 7303,
      "kòbëban": 7304,
      "ese": 7305,
      "esli": 7306,
      "esolò": 7307,
      "eskes": 7308,
      "yonam": 7309,
      "yorim": 7310,
      "mònam": 7311,
      "këan": 7312,
      "këlan": 7313,
      "kële": 7314,
      "atus": 7315,
      "atug": 7316,
      "atiṅ": 7317,
      "atui": 7318,
      "atag": 7319,
      "atun": 7320,
      "atum": 7321,
      "atud": 7322,
      "atomo": 7323,
      "atobò": 7324,
      "atone": 7325,
      "atogan": 7326,
      "atotoan": 7327,
      "atobògò": 7328,
      "atsas": 7329,
      "atsaa": 7330,
      "atsag": 7331,
      "atros": 7332,
      "alet": 7333,
      "alfa": 7334,
      "alama": 7335,
      "aled": 7336,
      "aloo": 7337,
      "alob": 7338,
      "alòṅan": 7339,
      "alolod": 7340,
      "alomëban": 7341,
      "mamëm": 7342,
      "mamvaman": 7343,
      "mamona": 7344,
      "rase": 7345,
      "ragda": 7346,
      "ragao": 7347,
      "falëga": 7348,
      "fadëgan": 7349,
      "mbòdan": 7350,
      "gënë": 7351,
      "gëzan": 7352,
      "hades": 7353,
      "harma": 7354,
      "ngòm": 7355,
      "ngòdòg": 7356,
      "endaban": 7357,
      "dzëan": 7358,
      "tis": 7359,
      "timan": 7360,
      "timbi": 7361,
      "tige": 7362,
      "tilig": 7363,
      "timon": 7364,
      "tikikos": 7365,
      "tikikus": 7366,
      "ayid": 7367,
      "ayiyi": 7368,
      "ayili": 7369,
      "ayiègè": 7370,
      "woean": 7371,
      "simkala": 7372,
      "nyindi": 7373,
      "yobed": 7374,
      "endegëlë": 7375,
      "onò": 7376,
      "onkodo": 7377,
      "etelëge": 7378,
      "fii": 7379,
      "fira": 7380,
      "file": 7381,
      "filetus": 7382,
      "ebye": 7383,
      "ebaṅ": 7384,
      "ebui": 7385,
      "ebulus": 7386,
      "eber": 7387,
      "eboṅ": 7388,
      "bëlëbë": 7389,
      "yuu": 7390,
      "yupi": 7391,
      "yulia": 7392,
      "yunia": 7393,
      "luon": 7394,
      "luugan": 7395,
      "lusius": 7396,
      "lukius": 7397,
      "mëngadi": 7398,
      "mëngayëbë": 7399,
      "mëngatègè": 7400,
      "mëngatòbò": 7401,
      "mëngakogëlan": 7402,
      "mëngahan": 7403,
      "mëngabaala": 7404,
      "mëngatsig": 7405,
      "mëngalugu": 7406,
      "mëngadzoge": 7407,
      "mëngafam": 7408,
      "mëngakam": 7409,
      "mëngayalan": 7410,
      "mëngasoe": 7411,
      "mëngatoan": 7412,
      "mëngabè": 7413,
      "mëngayaan": 7414,
      "mëngayon": 7415,
      "mëngasubu": 7416,
      "mëngadzèè": 7417,
      "mëngalad": 7418,
      "mëngakodeban": 7419,
      "mëngatag": 7420,
      "mëngakaman": 7421,
      "mëngayënan": 7422,
      "mëngakulan": 7423,
      "mëngadzibi": 7424,
      "mëngasòm": 7425,
      "mëngataman": 7426,
      "mëngayili": 7427,
      "mëngatsigi": 7428,
      "mëngayag": 7429,
      "mëngafadi": 7430,
      "mëngafon": 7431,
      "mëngavoan": 7432,
      "mëngabanda": 7433,
      "mëngadzib": 7434,
      "mëngawon": 7435,
      "mëngafëdan": 7436,
      "mëngavie": 7437,
      "mëngadzugulu": 7438,
      "mëngakaban": 7439,
      "mëngayenëban": 7440,
      "mëngayobo": 7441,
      "mëngaluu": 7442,
      "mëngasoeban": 7443,
      "mëngabugi": 7444,
      "mëngafoṅan": 7445,
      "mëngavom": 7446,
      "mëngakaè": 7447,
      "mëngasingi": 7448,
      "mëngabomban": 7449,
      "mëngakilan": 7450,
      "mëngafum": 7451,
      "mëngakpaèn": 7452,
      "mëngakobò": 7453,
      "mëngavini": 7454,
      "mëngâmëm": 7455,
      "lema": 7456,
      "ledëgan": 7457,
      "leèl": 7458,
      "lengabë": 7459,
      "kòbògan": 7460,
      "umaa": 7461,
      "abòṅ": 7462,
      "ndiman": 7463,
      "ndidiṅ": 7464,
      "ndiim": 7465,
      "ndidim": 7466,
      "gius": 7467,
      "gide": 7468,
      "ganòṅ": 7469,
      "ganyian": 7470,
      "esëb": 7471,
      "esëgëzë": 7472,
      "bëbye": 7473,
      "bëbom": 7474,
      "bëbui": 7475,
      "bëbaman": 7476,
      "bëbulu": 7477,
      "bëbombo": 7478,
      "bëbobolo": 7479,
      "bëbudi": 7480,
      "bëbomolo": 7481,
      "bëbudu": 7482,
      "angabëbë": 7483,
      "angabëmë": 7484,
      "ògò": 7485,
      "ngulu": 7486,
      "osësaṅ": 7487,
      "osësaṅan": 7488,
      "koro": 7489,
      "kozam": 7490,
      "korah": 7491,
      "waanaṅ": 7492,
      "waanamba": 7493,
      "waandzë": 7494,
      "waanyu": 7495,
      "waanaṅa": 7496,
      "waanyoe": 7497,
      "waanòni": 7498,
      "lèdëban": 7499,
      "embie": 7500,
      "embiama": 7501,
      "emmo": 7502,
      "emgbaṅ": 7503,
      "emais": 7504,
      "emmaus": 7505,
      "emmanuel": 7506,
      "kuig": 7507,
      "mintòṅ": 7508,
      "mintui": 7509,
      "mintòg": 7510,
      "mintubug": 7511,
      "mintòban": 7512,
      "dzòdan": 7513,
      "daniel": 7514,
      "dzaba": 7515,
      "dzalan": 7516,
      "dzalëgan": 7517,
      "asòṅ": 7518,
      "asas": 7519,
      "asala": 7520,
      "asèè": 7521,
      "asode": 7522,
      "asob": 7523,
      "asamëza": 7524,
      "asèr": 7525,
      "ugulan": 7526,
      "uguzan": 7527,
      "agustus": 7528,
      "mfuman": 7529,
      "mayiyi": 7530,
      "dzomo": 7531,
      "abogo": 7532,
      "kandi": 7533,
      "kanor": 7534,
      "yaèban": 7535,
      "kodogan": 7536,
      "bëbëbë": 7537,
      "bëbëba": 7538,
      "bëbële": 7539,
      "bëbëbëgë": 7540,
      "bëbëbiman": 7541,
      "awolo": 7542,
      "awodan": 7543,
      "awono": 7544,
      "bayia": 7545,
      "bayiyi": 7546,
      "bayili": 7547,
      "enges": 7548,
      "enganòṅ": 7549,
      "enganya": 7550,
      "engamlan": 7551,
      "zig": 7552,
      "zitòg": 7553,
      "zitòk": 7554,
      "elam": 7555,
      "elog": 7556,
      "elaṅ": 7557,
      "elos": 7558,
      "eles": 7559,
      "elugu": 7560,
      "elodo": 7561,
      "eloṅ": 7562,
      "elmadam": 7563,
      "mingakòbò": 7564,
      "mingakad": 7565,
      "mingadiṅ": 7566,
      "mingadug": 7567,
      "mingadzie": 7568,
      "mingayean": 7569,
      "mingaboe": 7570,
      "mingasili": 7571,
      "mingafidi": 7572,
      "mingabye": 7573,
      "mingakogëlan": 7574,
      "mingatëbë": 7575,
      "mingatari": 7576,
      "mingatil": 7577,
      "mingayaṅan": 7578,
      "mingabie": 7579,
      "mingakom": 7580,
      "mingaben": 7581,
      "mingalugu": 7582,
      "mingakodo": 7583,
      "mingawulu": 7584,
      "mingafudi": 7585,
      "mingavogolo": 7586,
      "mingavu": 7587,
      "mingazombo": 7588,
      "mingaluman": 7589,
      "mingadzèè": 7590,
      "mingatòb": 7591,
      "mingatam": 7592,
      "mingasie": 7593,
      "mingavòli": 7594,
      "mingakag": 7595,
      "mingabëgë": 7596,
      "mingabyali": 7597,
      "mingatòṅ": 7598,
      "mingawòbò": 7599,
      "mingalum": 7600,
      "mingayaaban": 7601,
      "mingaloeban": 7602,
      "mingakpè": 7603,
      "mingabedëban": 7604,
      "mingadzëban": 7605,
      "mingabulu": 7606,
      "mingafoṅan": 7607,
      "mingaloṅëban": 7608,
      "mingakele": 7609,
      "mingasòdi": 7610,
      "mingasyeban": 7611,
      "mingafè": 7612,
      "dzeki": 7613,
      "babëgele": 7614,
      "nkud": 7615,
      "nkun": 7616,
      "nkuban": 7617,
      "mbëṅë": 7618,
      "ongasus": 7619,
      "ongayëm": 7620,
      "ongawoe": 7621,
      "ongawu": 7622,
      "ongakod": 7623,
      "ongasog": 7624,
      "ongabo": 7625,
      "ongasili": 7626,
      "ongabu": 7627,
      "ongakogëlan": 7628,
      "ongalëdë": 7629,
      "ongadzoge": 7630,
      "ongayali": 7631,
      "ongayalan": 7632,
      "ongawulu": 7633,
      "ongatoan": 7634,
      "ongakus": 7635,
      "ongavol": 7636,
      "ongatoban": 7637,
      "ongaloṅ": 7638,
      "ongalig": 7639,
      "ongazombo": 7640,
      "ongayab": 7641,
      "ongalad": 7642,
      "ongatag": 7643,
      "ongabòban": 7644,
      "ongakag": 7645,
      "ongawòbò": 7646,
      "ongabed": 7647,
      "ongatsende": 7648,
      "ongafèd": 7649,
      "ongasal": 7650,
      "ongatindi": 7651,
      "ongatigëdan": 7652,
      "ongakomban": 7653,
      "ongayaaban": 7654,
      "ongavaaban": 7655,
      "ongadim": 7656,
      "ongaloeban": 7657,
      "ongakpèè": 7658,
      "ongafuu": 7659,
      "ongayenëban": 7660,
      "ongabam": 7661,
      "ongabomban": 7662,
      "ongasuguzu": 7663,
      "ongadzogobo": 7664,
      "ongakyègè": 7665,
      "tsik": 7666,
      "misoe": 7667,
      "misoan": 7668,
      "mbilan": 7669,
      "mbibiṅ": 7670,
      "ebugi": 7671,
      "bëngabëban": 7672,
      "mimbob": 7673,
      "bingazu": 7674,
      "bingadzie": 7675,
      "bingadugan": 7676,
      "bingadzëṅ": 7677,
      "bingalom": 7678,
      "bingatsog": 7679,
      "bingatele": 7680,
      "bingalëdë": 7681,
      "bingalod": 7682,
      "bingadzoge": 7683,
      "bingafam": 7684,
      "bingakodo": 7685,
      "bingayanga": 7686,
      "bingalig": 7687,
      "bingalad": 7688,
      "bingakodeban": 7689,
      "bingabòban": 7690,
      "bingabëgë": 7691,
      "bingayënan": 7692,
      "bingafyè": 7693,
      "bingadzibi": 7694,
      "bingabed": 7695,
      "bingatsende": 7696,
      "bingayenan": 7697,
      "bingasam": 7698,
      "bingavëëban": 7699,
      "bingafòmbò": 7700,
      "bingabui": 7701,
      "bingadzëban": 7702,
      "bingabombo": 7703,
      "bingayebe": 7704,
      "bingadabë": 7705,
      "bingavòbi": 7706,
      "bingâdzuuban": 7707,
      "bingayaèban": 7708,
      "engabi": 7709,
      "engavë": 7710,
      "engayo": 7711,
      "engawog": 7712,
      "engawu": 7713,
      "engakad": 7714,
      "engadug": 7715,
      "engadugan": 7716,
      "engabo": 7717,
      "engabye": 7718,
      "engakogëlan": 7719,
      "engatele": 7720,
      "engakode": 7721,
      "engalod": 7722,
      "engatye": 7723,
      "engavoe": 7724,
      "engavëṅan": 7725,
      "engayalan": 7726,
      "engayanga": 7727,
      "engayaan": 7728,
      "engasubu": 7729,
      "engakomëzan": 7730,
      "engatoṅ": 7731,
      "engabad": 7732,
      "engavòli": 7733,
      "engayene": 7734,
      "engakulan": 7735,
      "engawum": 7736,
      "engabed": 7737,
      "engatub": 7738,
      "engalende": 7739,
      "engadzalëban": 7740,
      "engatsaman": 7741,
      "engayaman": 7742,
      "engasaṅan": 7743,
      "engadig": 7744,
      "engakanga": 7745,
      "engakog": 7746,
      "engadzëm": 7747,
      "engatilban": 7748,
      "engabugi": 7749,
      "engayëmban": 7750,
      "engalëndë": 7751,
      "engatiiban": 7752,
      "engabomban": 7753,
      "engafum": 7754,
      "engavëlë": 7755,
      "engatonde": 7756,
      "engabagban": 7757,
      "engasali": 7758,
      "engaboman": 7759,
      "engayedëban": 7760,
      "engakòbëban": 7761,
      "engatige": 7762,
      "engalèdëban": 7763,
      "mëkyebë": 7764,
      "mëkomga": 7765,
      "mëkonò": 7766,
      "paran": 7767,
      "avël": 7768,
      "avëbë": 7769,
      "lois": 7770,
      "duban": 7771,
      "robas": 7772,
      "alatan": 7773,
      "mfan": 7774,
      "mfaman": 7775,
      "esyeban": 7776,
      "edzoege": 7777,
      "mfas": 7778,
      "lomban": 7779,
      "edaṅa": 7780,
      "bongò": 7781,
      "bongo": 7782,
      "bozor": 7783,
      "evovolan": 7784,
      "sada": 7785,
      "saul": 7786,
      "sare": 7787,
      "sabak": 7788,
      "saalan": 7789,
      "sabaot": 7790,
      "safira": 7791,
      "prokoro": 7792,
      "siligi": 7793,
      "asòdi": 7794,
      "asòmò": 7795,
      "asòmban": 7796,
      "toaṅ": 7797,
      "totoe": 7798,
      "tobol": 7799,
      "ndën": 7800,
      "ndëngëlë": 7801,
      "vagan": 7802,
      "yanamba": 7803,
      "yanen": 7804,
      "yanes": 7805,
      "yanyu": 7806,
      "yanyie": 7807,
      "yanyii": 7808,
      "yannai": 7809,
      "yandëṅa": 7810,
      "uluban": 7811,
      "bòòban": 7812,
      "zënë": 7813,
      "akut": 7814,
      "akuza": 7815,
      "akudëban": 7816,
      "akulëgan": 7817,
      "bud": 7818,
      "buu": 7819,
      "nkaṅ": 7820,
      "nkos": 7821,
      "nkaman": 7822,
      "nkole": 7823,
      "nkritus": 7824,
      "bibe": 7825,
      "bibaṅ": 7826,
      "biben": 7827,
      "bibende": 7828,
      "bibolan": 7829,
      "mëlumëṅan": 7830,
      "mvola": 7831,
      "mvoṅë": 7832,
      "byege": 7833,
      "eyël": 7834,
      "eyënë": 7835,
      "babëdzaṅan": 7836,
      "awundi": 7837,
      "awumu": 7838,
      "tuk": 7839,
      "tumi": 7840,
      "bëfala": 7841,
      "bëfadi": 7842,
      "bëfadigi": 7843,
      "azuzu": 7844,
      "maabi": 7845,
      "maadzëṅ": 7846,
      "maalëdë": 7847,
      "maayëyëm": 7848,
      "akëlëban": 7849,
      "nombò": 7850,
      "babisi": 7851,
      "babiban": 7852,
      "wayit": 7853,
      "wayimbi": 7854,
      "tëbële": 7855,
      "tëbëge": 7856,
      "ger": 7857,
      "gehe": 7858,
      "geras": 7859,
      "gerase": 7860,
      "akar": 7861,
      "akaan": 7862,
      "akalëgi": 7863,
      "bidiiga": 7864,
      "oloṅ": 7865,
      "afè": 7866,
      "afen": 7867,
      "afèè": 7868,
      "afami": 7869,
      "afaṅa": 7870,
      "afodan": 7871,
      "afono": 7872,
      "nòṅëban": 7873,
      "isop": 7874,
      "isakar": 7875,
      "anòṅan": 7876,
      "nlot": 7877,
      "asëmë": 7878,
      "asësye": 7879,
      "asëgëzë": 7880,
      "nsël": 7881,
      "mfëdan": 7882,
      "mfëṅëlan": 7883,
      "abiman": 7884,
      "abilenes": 7885,
      "nsëme": 7886,
      "nkaba": 7887,
      "atili": 7888,
      "atimbi": 7889,
      "atindigi": 7890,
      "atimiṅi": 7891,
      "ermas": 7892,
      "erubim": 7893,
      "mianaṅ": 7894,
      "mianamba": 7895,
      "miandzi": 7896,
      "mianèd": 7897,
      "miandaman": 7898,
      "miandëṅa": 7899,
      "mianganyian": 7900,
      "miandzeki": 7901,
      "elimas": 7902,
      "elise": 7903,
      "eliazar": 7904,
      "eliezer": 7905,
      "eleazar": 7906,
      "refas": 7907,
      "redzio": 7908,
      "damaris": 7909,
      "mëbonga": 7910,
      "mëbombo": 7911,
      "mëbomban": 7912,
      "mëkilan": 7913,
      "ataag": 7914,
      "atalia": 7915,
      "olada": 7916,
      "appi": 7917,
      "apelès": 7918,
      "angavëg": 7919,
      "angavëbë": 7920,
      "angabè": 7921,
      "angabaman": 7922,
      "angaboge": 7923,
      "mvid": 7924,
      "batos": 7925,
      "bataman": 7926,
      "mpas": 7927,
      "angabòd": 7928,
      "biedan": 7929,
      "nyiiban": 7930,
      "nyiigi": 7931,
      "womo": 7932,
      "bëkè": 7933,
      "bëkab": 7934,
      "bëkom": 7935,
      "bëkoa": 7936,
      "bëkaman": 7937,
      "bëkoge": 7938,
      "bëkòṅan": 7939,
      "bëkanëṅi": 7940,
      "bëkerubim": 7941,
      "yayidan": 7942,
      "minkud": 7943,
      "bëbòbò": 7944,
      "bëbòdi": 7945,
      "amëmë": 7946,
      "amëmam": 7947,
      "amëṅan": 7948,
      "amëṅë": 7949,
      "angayenan": 7950,
      "mimfufubu": 7951,
      "mvud": 7952,
      "mvuan": 7953,
      "mvumvua": 7954,
      "mvuvug": 7955,
      "anganèè": 7956,
      "angandama": 7957,
      "anganyie": 7958,
      "anganyëb": 7959,
      "anganyaman": 7960,
      "anganyii": 7961,
      "anganyum": 7962,
      "anganòni": 7963,
      "anganyuu": 7964,
      "ombara": 7965,
      "mvòṅëlò": 7966,
      "luguban": 7967,
      "bakëban": 7968,
      "bakëkam": 7969,
      "bëbela": 7970,
      "bëbelë": 7971,
      "efalan": 7972,
      "efaègi": 7973,
      "laṅa": 7974,
      "bënglès": 7975,
      "bënganyiṅ": 7976,
      "bëngamëm": 7977,
      "bënganya": 7978,
      "bëngandë": 7979,
      "yiṅi": 7980,
      "alumëṅan": 7981,
      "omboo": 7982,
      "efaṅa": 7983,
      "efyal": 7984,
      "efyèg": 7985,
      "efono": 7986,
      "efrai": 7987,
      "efrat": 7988,
      "efuguzan": 7989,
      "angakëan": 7990,
      "biayëmyem": 7991,
      "bibugi": 7992,
      "afububan": 7993,
      "binaṅa": 7994,
      "babòlan": 7995,
      "babòdò": 7996,
      "sòòd": 7997,
      "mimbuman": 7998,
      "mimbumbu": 7999,
      "ayëmban": 8000,
      "bëbëlëgë": 8001,
      "tani": 8002,
      "malta": 8003,
      "malkus": 8004,
      "malaṅëdan": 8005,
      "mbobëlo": 8006,
      "adim": 8007,
      "adian": 8008,
      "adimi": 8009,
      "bëngavëg": 8010,
      "bëngavëëban": 8011,
      "mëtubu": 8012,
      "bèban": 8013,
      "yangakulan": 8014,
      "angoe": 8015,
      "angamba": 8016,
      "angos": 8017,
      "angòg": 8018,
      "angonga": 8019,
      "angamia": 8020,
      "angamvaman": 8021,
      "angumaa": 8022,
      "barak": 8023,
      "mëbòòg": 8024,
      "fudigi": 8025,
      "vaaga": 8026,
      "bëngayid": 8027,
      "oṅyënë": 8028,
      "pirrus": 8029,
      "ṅyëban": 8030,
      "ṅyëgan": 8031,
      "ṅyëdan": 8032,
      "angasòli": 8033,
      "angasòman": 8034,
      "woaga": 8035,
      "ahëṅan": 8036,
      "ahëlëban": 8037,
      "bedan": 8038,
      "beyègè": 8039,
      "benyia": 8040,
      "bezimbi": 8041,
      "besòò": 8042,
      "bekus": 8043,
      "beprofet": 8044,
      "besie": 8045,
      "bedëgan": 8046,
      "bedigi": 8047,
      "behòg": 8048,
      "bëmmana": 8049,
      "bëmbara": 8050,
      "bëbili": 8051,
      "bëbindi": 8052,
      "bëbindigi": 8053,
      "bëbimiṅi": 8054,
      "nduman": 8055,
      "ndudu": 8056,
      "nduduman": 8057,
      "ndunduman": 8058,
      "abyege": 8059,
      "ayëmëṅë": 8060,
      "bëwuban": 8061,
      "bëwudan": 8062,
      "bëwudu": 8063,
      "bëngayene": 8064,
      "obòòg": 8065,
      "obòdò": 8066,
      "obòbòd": 8067,
      "bakub": 8068,
      "bakuban": 8069,
      "bakuli": 8070,
      "bakulan": 8071,
      "ngumaa": 8072,
      "mësuli": 8073,
      "ntëtëg": 8074,
      "otaman": 8075,
      "otole": 8076,
      "otraka": 8077,
      "bianyab": 8078,
      "dzèèban": 8079,
      "yabon": 8080,
      "yabulu": 8081,
      "yabyandi": 8082,
      "obyali": 8083,
      "obeme": 8084,
      "obugi": 8085,
      "bibòban": 8086,
      "bibòbòg": 8087,
      "masè": 8088,
      "wadzodzo": 8089,
      "mbuan": 8090,
      "mbubum": 8091,
      "nkobò": 8092,
      "nkomëdan": 8093,
      "mayenan": 8094,
      "nyiege": 8095,
      "zaret": 8096,
      "esiigi": 8097,
      "afani": 8098,
      "afumi": 8099,
      "afufudi": 8100,
      "afumu": 8101,
      "ekè": 8102,
      "ekoe": 8103,
      "ekab": 8104,
      "ekka": 8105,
      "ekes": 8106,
      "ekègè": 8107,
      "ekama": 8108,
      "ekpa": 8109,
      "ekogolo": 8110,
      "ekaṅa": 8111,
      "ekogë": 8112,
      "ekpaa": 8113,
      "ekabëla": 8114,
      "endëm": 8115,
      "endëmë": 8116,
      "bidzoo": 8117,
      "basoan": 8118,
      "mëlanga": 8119,
      "mëngayene": 8120,
      "mëngayenan": 8121,
      "erodiona": 8122,
      "angayin": 8123,
      "bëngasòbò": 8124,
      "bëngasòli": 8125,
      "bëngabon": 8126,
      "bëngabaman": 8127,
      "bëngabulu": 8128,
      "bëngabeme": 8129,
      "mvòmò": 8130,
      "mvòmvòmò": 8131,
      "bëfëdan": 8132,
      "miakanga": 8133,
      "miakaban": 8134,
      "miakun": 8135,
      "miakala": 8136,
      "miakodo": 8137,
      "miakèè": 8138,
      "miakele": 8139,
      "miakole": 8140,
      "miakani": 8141,
      "miakpèè": 8142,
      "mëkëban": 8143,
      "mëkëmëdë": 8144,
      "tieban": 8145,
      "nkòd": 8146,
      "nkògò": 8147,
      "nkòran": 8148,
      "bësaṅan": 8149,
      "bësob": 8150,
      "bësoogo": 8151,
      "bësamza": 8152,
      "alugëban": 8153,
      "dzòdigan": 8154,
      "asilisili": 8155,
      "obëlëgë": 8156,
      "yasòli": 8157,
      "angabimi": 8158,
      "yosek": 8159,
      "bëgëlan": 8160,
      "bayenan": 8161,
      "mëtug": 8162,
      "mëtamëna": 8163,
      "mëtogan": 8164,
      "minkoe": 8165,
      "minkanga": 8166,
      "minkug": 8167,
      "minkyè": 8168,
      "evuvuman": 8169,
      "ebana": 8170,
      "amiè": 8171,
      "bëtende": 8172,
      "sekundus": 8173,
      "semani": 8174,
      "mëkuu": 8175,
      "mëkudu": 8176,
      "mëkubu": 8177,
      "mëkunëṅa": 8178,
      "atsia": 8179,
      "atsigëban": 8180,
      "afëlan": 8181,
      "afëṅan": 8182,
      "afëdëban": 8183,
      "afëlëgan": 8184,
      "bëvëvë": 8185,
      "nyënya": 8186,
      "nikanor": 8187,
      "nimfas": 8188,
      "niger": 8189,
      "bëlada": 8190,
      "bëyia": 8191,
      "bëyid": 8192,
      "bëyili": 8193,
      "bëyiègè": 8194,
      "bëyimbi": 8195,
      "bëyini": 8196,
      "bëyidëgan": 8197,
      "bëyiaga": 8198,
      "yatiṅ": 8199,
      "kyëbëgë": 8200,
      "mbaan": 8201,
      "mbagan": 8202,
      "mbaaga": 8203,
      "mingaman": 8204,
      "mingambara": 8205,
      "dzibigan": 8206,
      "eboege": 8207,
      "ebòl": 8208,
      "ebòòg": 8209,
      "wòbògan": 8210,
      "wòbògò": 8211,
      "mëngoe": 8212,
      "mëngamba": 8213,
      "mëngaman": 8214,
      "mënganyu": 8215,
      "mëngambara": 8216,
      "mënganamba": 8217,
      "mënganaṅ": 8218,
      "mënganyuu": 8219,
      "tiigan": 8220,
      "arni": 8221,
      "arfak": 8222,
      "arkela": 8223,
      "efum": 8224,
      "efumu": 8225,
      "feg": 8226,
      "imene": 8227,
      "imeneus": 8228,
      "mongò": 8229,
      "mibii": 8230,
      "mibindigi": 8231,
      "miyëme": 8232,
      "wazuzu": 8233,
      "ayën": 8234,
      "ayëan": 8235,
      "ayëgë": 8236,
      "ayële": 8237,
      "ayëgan": 8238,
      "ayëyean": 8239,
      "ayëde": 8240,
      "betsada": 8241,
      "evëëban": 8242,
      "evëves": 8243,
      "evëvëë": 8244,
      "bëloeban": 8245,
      "bëloegan": 8246,
      "nazarèt": 8247,
      "miṅyoyòg": 8248,
      "abaga": 8249,
      "abada": 8250,
      "esòbòlò": 8251,
      "bavëg": 8252,
      "etimi": 8253,
      "etindi": 8254,
      "mbandan": 8255,
      "ndzòmbi": 8256,
      "ndzònan": 8257,
      "ndzaag": 8258,
      "andondòṅ": 8259,
      "androni": 8260,
      "antipas": 8261,
      "antipater": 8262,
      "bikab": 8263,
      "bikoa": 8264,
      "bikenges": 8265,
      "bikëë": 8266,
      "bibòòban": 8267,
      "mbembë": 8268,
      "miasan": 8269,
      "miasban": 8270,
      "miasoan": 8271,
      "miasoo": 8272,
      "miasoṅ": 8273,
      "miasob": 8274,
      "mëngasòli": 8275,
      "mëngasòdan": 8276,
      "abòdògò": 8277,
      "ongamana": 8278,
      "ongamëm": 8279,
      "ongandë": 8280,
      "onganyaṅ": 8281,
      "minsol": 8282,
      "minsem": 8283,
      "atòs": 8284,
      "efëdë": 8285,
      "ekaè": 8286,
      "ekalig": 8287,
      "balak": 8288,
      "balaban": 8289,
      "mëfaṅa": 8290,
      "mëfuguzu": 8291,
      "angakub": 8292,
      "angakubi": 8293,
      "bëbomë": 8294,
      "ayebë": 8295,
      "ediiga": 8296,
      "mibëdë": 8297,
      "makoe": 8298,
      "makòṅan": 8299,
      "makyëbe": 8300,
      "maranat": 8301,
      "mavëg": 8302,
      "mavëlë": 8303,
      "angakè": 8304,
      "angakoe": 8305,
      "angakèan": 8306,
      "angakabëban": 8307,
      "bëngadimi": 8308,
      "bëngadilan": 8309,
      "nsòg": 8310,
      "nsògò": 8311,
      "ohëg": 8312,
      "samson": 8313,
      "samotraka": 8314,
      "anius": 8315,
      "bëtili": 8316,
      "bëtindi": 8317,
      "bëtimiṅi": 8318,
      "bëtitima": 8319,
      "angakomban": 8320,
      "biasòdi": 8321,
      "ovoan": 8322,
      "ovon": 8323,
      "oveves": 8324,
      "seruk": 8325,
      "sergius": 8326,
      "mifëb": 8327,
      "mifëbë": 8328,
      "mifëmë": 8329,
      "bëngabimi": 8330,
      "bëngabindi": 8331,
      "bëngabied": 8332,
      "bëngawuban": 8333,
      "fares": 8334,
      "evini": 8335,
      "koegan": 8336,
      "salamina": 8337,
      "wakè": 8338,
      "wakoe": 8339,
      "wakanga": 8340,
      "wakaṅ": 8341,
      "wakus": 8342,
      "wakaman": 8343,
      "wakag": 8344,
      "wakala": 8345,
      "wakuluban": 8346,
      "bësògò": 8347,
      "bëkalëga": 8348,
      "bëtòbògò": 8349,
      "etubi": 8350,
      "etudi": 8351,
      "etukos": 8352,
      "akii": 8353,
      "bugëban": 8354,
      "bugeban": 8355,
      "enyòdi": 8356,
      "edudug": 8357,
      "edudugu": 8358,
      "badian": 8359,
      "basòli": 8360,
      "addi": 8361,
      "admin": 8362,
      "adoan": 8363,
      "adria": 8364,
      "adrami": 8365,
      "ebibiam": 8366,
      "etëlëga": 8367,
      "etëlëge": 8368,
      "bëtëbëga": 8369,
      "bikola": 8370,
      "bikobo": 8371,
      "bikondog": 8372,
      "mëvëlë": 8373,
      "bandas": 8374,
      "amiasa": 8375,
      "nziziṅi": 8376,
      "osòg": 8377,
      "anòniṅi": 8378,
      "bëkun": 8379,
      "bëkuban": 8380,
      "bëhëlë": 8381,
      "bëluugan": 8382,
      "bingaman": 8383,
      "bingamana": 8384,
      "binganyu": 8385,
      "binganyian": 8386,
      "bingany": 8387,
      "basyeban": 8388,
      "wasòsò": 8389,
      "mingabòd": 8390,
      "mingabòdò": 8391,
      "foibè": 8392,
      "fortu": 8393,
      "okab": 8394,
      "okaban": 8395,
      "okòṅan": 8396,
      "okpaa": 8397,
      "ovëg": 8398,
      "oyëmëlë": 8399,
      "bëdian": 8400,
      "bëdina": 8401,
      "bëdimi": 8402,
      "bëdigi": 8403,
      "bitogan": 8404,
      "bitsaa": 8405,
      "biakam": 8406,
      "biakoe": 8407,
      "biakoan": 8408,
      "biakag": 8409,
      "mëfububan": 8410,
      "angakagban": 8411,
      "minkoṅ": 8412,
      "ongasòg": 8413,
      "asii": 8414,
      "asiki": 8415,
      "asiigi": 8416,
      "asinkritus": 8417,
      "fanuel": 8418,
      "mitelë": 8419,
      "mikëan": 8420,
      "bibii": 8421,
      "biyëga": 8422,
      "mëlëbë": 8423,
      "mëlëbe": 8424,
      "wavëvëë": 8425,
      "bëngakè": 8426,
      "bëngakanga": 8427,
      "bëngakab": 8428,
      "bëngakèan": 8429,
      "kaldea": 8430,
      "levit": 8431,
      "apolonia": 8432,
      "apolluon": 8433,
      "aduban": 8434,
      "adudugu": 8435,
      "nloean": 8436,
      "otili": 8437,
      "otsigëban": 8438,
      "rabbuni": 8439,
      "minyiigi": 8440,
      "bihëbë": 8441,
      "babam": 8442,
      "baboman": 8443,
      "babeme": 8444,
      "babome": 8445,
      "mëbii": 8446,
      "mëbindigi": 8447,
      "mësòdi": 8448,
      "mësòdan": 8449,
      "mëyëmban": 8450,
      "mësoege": 8451,
      "yadaṅdaṅ": 8452,
      "akaikus": 8453,
      "alòb": 8454,
      "tiranus": 8455,
      "nsanga": 8456,
      "nsol": 8457,
      "nsem": 8458,
      "nsoban": 8459,
      "obii": 8460,
      "obimi": 8461,
      "tèègè": 8462,
      "udiban": 8463,
      "zeyan": 8464,
      "zezë": 8465,
      "zenas": 8466,
      "bësoegan": 8467,
      "mikarëga": 8468,
      "bisòlò": 8469,
      "bakab": 8470,
      "abugi": 8471,
      "kandaki": 8472,
      "bëyiig": 8473,
      "avuṅ": 8474,
      "avovoan": 8475,
      "lamek": 8476,
      "lamvaman": 8477,
      "mera": 8478,
      "memvende": 8479,
      "menas": 8480,
      "nòan": 8481,
      "nòdi": 8482,
      "okunëṅi": 8483,
      "okukud": 8484,
      "toegan": 8485,
      "bëkadëga": 8486,
      "miabëbëlë": 8487,
      "miabënan": 8488,
      "miyëbëgë": 8489,
      "mianòṅan": 8490,
      "nyaan": 8491,
      "ṅëlë": 8492,
      "ṅële": 8493,
      "balindi": 8494,
      "basugu": 8495,
      "angâyen": 8496,
      "angâsye": 8497,
      "angâkode": 8498,
      "angâbëlan": 8499,
      "angâmëm": 8500,
      "angâdzuban": 8501,
      "angânyuu": 8502,
      "ebulban": 8503,
      "mëngalomban": 8504,
      "babilonia": 8505,
      "ateen": 8506,
      "ateran": 8507,
      "ekòli": 8508,
      "ehëg": 8509,
      "ehëgëlë": 8510,
      "kreskes": 8511,
      "neri": 8512,
      "ondama": 8513,
      "bëtelege": 8514,
      "midib": 8515,
      "midian": 8516,
      "midimëzan": 8517,
      "mënyaman": 8518,
      "mënyum": 8519,
      "mëfëmë": 8520,
      "mëwuu": 8521,
      "matug": 8522,
      "makilan": 8523,
      "lëngabò": 8524,
      "lëngasus": 8525,
      "bëngakuban": 8526,
      "etari": 8527,
      "miabisi": 8528,
      "miadimi": 8529,
      "miadidi": 8530,
      "rashel": 8531,
      "komëban": 8532,
      "komëdan": 8533,
      "bingasòdan": 8534,
      "nkèan": 8535,
      "mëbugban": 8536,
      "mëbugëban": 8537,
      "eyoge": 8538,
      "ebòòban": 8539,
      "enyëbë": 8540,
      "mens": 8541,
      "menna": 8542,
      "persis": 8543,
      "pergama": 8544,
      "pergam": 8545,
      "trakoni": 8546,
      "bifum": 8547,
      "bibobòg": 8548,
      "babèan": 8549,
      "mëwologo": 8550,
      "mëyidi": 8551,
      "mëyigi": 8552,
      "mëyimbi": 8553,
      "mëyini": 8554,
      "mëyiaga": 8555,
      "mëbòòban": 8556,
      "yaagi": 8557,
      "yaagan": 8558,
      "angadib": 8559,
      "angadian": 8560,
      "angaduban": 8561,
      "bëngasogolo": 8562,
      "ebuguban": 8563,
      "bingayiyi": 8564,
      "akpëgëlë": 8565,
      "aham": 8566,
      "ahaṅ": 8567,
      "ahaman": 8568,
      "ayoe": 8569,
      "abiatar": 8570,
      "aristobol": 8571,
      "afudigi": 8572,
      "atëgëban": 8573,
      "bamvaman": 8574,
      "oboo": 8575,
      "owoaga": 8576,
      "andëm": 8577,
      "andëṅë": 8578,
      "bëntaa": 8579,
      "nain": 8580,
      "miabudiban": 8581,
      "biwuu": 8582,
      "biwuwu": 8583,
      "mëtaga": 8584,
      "mëkomëga": 8585,
      "yabëdëban": 8586,
      "odilan": 8587,
      "makud": 8588,
      "galasia": 8589,
      "tersius": 8590,
      "akomodo": 8591,
      "akokoe": 8592,
      "akomëdo": 8593,
      "bëngakoman": 8594,
      "mvëgan": 8595,
      "alòṅa": 8596,
      "mëngadzoban": 8597,
      "asolege": 8598,
      "mingayidan": 8599,
      "ayenëban": 8600,
      "ikoniom": 8601,
      "adzaègè": 8602,
      "adzaègi": 8603,
      "dosia": 8604,
      "dorkas": 8605,
      "ekubu": 8606,
      "engëngëṅ": 8607,
      "engëlzëg": 8608,
      "fenis": 8609,
      "porsius": 8610,
      "pontius": 8611,
      "sanda": 8612,
      "bëhama": 8613,
      "bëhaman": 8614,
      "mivaaga": 8615,
      "nyumulu": 8616,
      "bisiṅan": 8617,
      "mëvolo": 8618,
      "mëbaa": 8619,
      "maduban": 8620,
      "sirta": 8621,
      "sirakuza": 8622,
      "angasieban": 8623,
      "akomdo": 8624,
      "yoanan": 8625,
      "mëngakubi": 8626,
      "bëboege": 8627,
      "saron": 8628,
      "minkumdu": 8629,
      "yangâtègè": 8630,
      "yangâkui": 8631,
      "yangâbugi": 8632,
      "yangâdzuuban": 8633,
      "yangâvëban": 8634,
      "mattata": 8635,
      "adzuu": 8636,
      "adzaaga": 8637,
      "boarne": 8638,
      "etële": 8639,
      "etëtele": 8640,
      "mèra": 8641,
      "mbarga": 8642,
      "okalëga": 8643,
      "ruben": 8644,
      "rufus": 8645,
      "ruth": 8646,
      "sasan": 8647,
      "tamar": 8648,
      "trofus": 8649,
      "anyaṅa": 8650,
      "bëfolo": 8651,
      "bëfana": 8652,
      "bëfyaṅan": 8653,
      "bëfaṅa": 8654,
      "bësuugu": 8655,
      "bësuṅu": 8656,
      "bëtële": 8657,
      "bënyiege": 8658,
      "bimgbaṅ": 8659,
      "bivomo": 8660,
      "bivovoe": 8661,
      "bivovol": 8662,
      "bivovolan": 8663,
      "biyemë": 8664,
      "biyega": 8665,
      "biyeyëm": 8666,
      "bikudi": 8667,
      "bikubu": 8668,
      "mëkaba": 8669,
      "mëkarëga": 8670,
      "mësiligi": 8671,
      "yakòbòlò": 8672,
      "angabudi": 8673,
      "angabudan": 8674,
      "abudigi": 8675,
      "ntulan": 8676,
      "ntunëṅan": 8677,
      "bëngatòs": 8678,
      "bëngatòli": 8679,
      "biavëgan": 8680,
      "manase": 8681,
      "minsëṅa": 8682,
      "miawoean": 8683,
      "tiberius": 8684,
      "ebubud": 8685,
      "engâtiiban": 8686,
      "bënganèè": 8687,
      "bënganyie": 8688,
      "bënganoni": 8689,
      "bënganyaman": 8690,
      "efema": 8691,
      "nikola": 8692,
      "nikopolis": 8693,
      "etilban": 8694,
      "klaudia": 8695,
      "alëd": 8696,
      "alëmbë": 8697,
      "alëde": 8698,
      "ekëla": 8699,
      "elumëṅan": 8700,
      "keleban": 8701,
      "lusanius": 8702,
      "manëṅa": 8703,
      "mmiasan": 8704,
      "ntelan": 8705,
      "ntegan": 8706,
      "ndzoan": 8707,
      "otaga": 8708,
      "ovaaga": 8709,
      "pudas": 8710,
      "wakuban": 8711,
      "yoel": 8712,
      "bëlègè": 8713,
      "bëlama": 8714,
      "bëtiṅi": 8715,
      "bënada": 8716,
      "bënapken": 8717,
      "bënambëga": 8718,
      "bënyaman": 8719,
      "bënyòdi": 8720,
      "bënyòkal": 8721,
      "naggai": 8722,
      "mihama": 8723,
      "milimi": 8724,
      "mitaga": 8725,
      "mitada": 8726,
      "mitaag": 8727,
      "mindidim": 8728,
      "miëṅgele": 8729,
      "mifudigi": 8730,
      "ṅyilan": 8731,
      "ṅyinan": 8732,
      "bituga": 8733,
      "bikpëg": 8734,
      "biwonan": 8735,
      "mëdiiga": 8736,
      "mëngëmë": 8737,
      "mëngëdëg": 8738,
      "mëngëne": 8739,
      "kilomèra": 8740,
      "omega": 8741,
      "bëngâyen": 8742,
      "bëngâsili": 8743,
      "bëngâdali": 8744,
      "mvomvol": 8745,
      "minkëṅëlë": 8746,
      "miavëgan": 8747,
      "kòrban": 8748,
      "atoege": 8749,
      "alumu": 8750,
      "tindëgan": 8751,
      "filologus": 8752,
      "mingâbò": 8753,
      "mingâvaè": 8754,
      "mingâvaaban": 8755,
      "ongâtii": 8756,
      "ongâtindi": 8757,
      "ongâdzòdiban": 8758,
      "ermogenes": 8759,
      "bënganyumulu": 8760,
      "adiliban": 8761,
      "bëbimii": 8762,
      "neftalim": 8763,
      "afad": 8764,
      "afaga": 8765,
      "avundu": 8766,
      "avundugu": 8767,
      "abaddon": 8768,
      "avean": 8769,
      "damak": 8770,
      "eyòk": 8771,
      "kleopas": 8772,
      "klemens": 8773,
      "mangabad": 8774,
      "mangayëgan": 8775,
      "ndzèan": 8776,
      "ndzugulan": 8777,
      "nsilan": 8778,
      "nlòban": 8779,
      "nlòmbi": 8780,
      "nzëzaa": 8781,
      "nsemë": 8782,
      "nselëg": 8783,
      "ofaṅa": 8784,
      "ofyèg": 8785,
      "ofèdban": 8786,
      "patmos": 8787,
      "patrobas": 8788,
      "raifan": 8789,
      "anoniṅi": 8790,
      "anyiege": 8791,
      "bëyaag": 8792,
      "bëyaègi": 8793,
      "bësimi": 8794,
      "bësiṅan": 8795,
      "bëlobele": 8796,
      "miyiègè": 8797,
      "miyiaga": 8798,
      "mitëbe": 8799,
      "mitëtëlan": 8800,
      "mingëngaṅ": 8801,
      "mingëne": 8802,
      "mivuu": 8803,
      "mitobògò": 8804,
      "bikiga": 8805,
      "bikadi": 8806,
      "bikalik": 8807,
      "bidud": 8808,
      "biduṅ": 8809,
      "bianyum": 8810,
      "batalan": 8811,
      "bawoman": 8812,
      "mëndëmë": 8813,
      "mëndëṅë": 8814,
      "mawuwu": 8815,
      "angasode": 8816,
      "angasamëza": 8817,
      "akodogo": 8818,
      "akodëge": 8819,
      "olimpas": 8820,
      "oluugu": 8821,
      "olumbu": 8822,
      "karpos": 8823,
      "kapadokia": 8824,
      "kapadosia": 8825,
      "miatubtub": 8826,
      "aleksand": 8827,
      "onkëë": 8828,
      "figelos": 8829,
      "mëngabole": 8830,
      "mëngabolan": 8831,
      "mëngalëdëban": 8832,
      "mëngalèèban": 8833,
      "waandami": 8834,
      "waandṅgele": 8835,
      "engazuzu": 8836,
      "partia": 8837,
      "parmenas": 8838,
      "salim": 8839,
      "sostene": 8840,
      "mëbedan": 8841,
      "mëbedëban": 8842,
      "aretas": 8843,
      "wakanikani": 8844,
      "trifana": 8845,
      "trifosas": 8846,
      "azot": 8847,
      "augustus": 8848,
      "atëgëlë": 8849,
      "afimiṅi": 8850,
      "atene": 8851,
      "afalaga": 8852,
      "adzëmëṅa": 8853,
      "brès": 8854,
      "belial": 8855,
      "bebela": 8856,
      "blastus": 8857,
      "dekapolis": 8858,
      "drusila": 8859,
      "ehama": 8860,
      "epanetus": 8861,
      "enara": 8862,
      "eyala": 8863,
      "eodia": 8864,
      "esuṅu": 8865,
      "engòngòl": 8866,
      "efida": 8867,
      "elòmò": 8868,
      "ewòli": 8869,
      "ehie": 8870,
      "edibiga": 8871,
      "epikurea": 8872,
      "enyungi": 8873,
      "ezezam": 8874,
      "flegon": 8875,
      "gratsia": 8876,
      "getsemani": 8877,
      "gedon": 8878,
      "genezaret": 8879,
      "genesaret": 8880,
      "iliria": 8881,
      "idumea": 8882,
      "iturea": 8883,
      "klopas": 8884,
      "kedron": 8885,
      "kolosi": 8886,
      "langâdzuuban": 8887,
      "mnazon": 8888,
      "metiṅ": 8889,
      "mendim": 8890,
      "mfòb": 8891,
      "molok": 8892,
      "melea": 8893,
      "metin": 8894,
      "medina": 8895,
      "metunëṅa": 8896,
      "mengâsye": 8897,
      "ndzian": 8898,
      "ndzëmëṅan": 8899,
      "neapolis": 8900,
      "nereas": 8901,
      "oyak": 8902,
      "oyenyen": 8903,
      "ofëmë": 8904,
      "ofumu": 8905,
      "osusa": 8906,
      "oyolëge": 8907,
      "owuu": 8908,
      "ozëza": 8909,
      "odzugëlan": 8910,
      "ovudan": 8911,
      "obobomo": 8912,
      "ponsius": 8913,
      "patara": 8914,
      "ptolemais": 8915,
      "pozuoli": 8916,
      "rodos": 8917,
      "rebekka": 8918,
      "stakus": 8919,
      "smaragda": 8920,
      "senëban": 8921,
      "semein": 8922,
      "sopatros": 8923,
      "sosipater": 8924,
      "urbanus": 8925,
      "wooban": 8926,
      "yambrès": 8927,
      "yairus": 8928,
      "zabulon": 8929,
      "anoege": 8930,
      "antaa": 8931,
      "bëdzèègè": 8932,
      "bëndolo": 8933,
      "bëyemë": 8934,
      "bëyën": 8935,
      "bëwaag": 8936,
      "bëfubëban": 8937,
      "bëkògò": 8938,
      "bëmònò": 8939,
      "bësòṅò": 8940,
      "bëmvomëgan": 8941,
      "bëtuli": 8942,
      "bëyèègè": 8943,
      "bënkag": 8944,
      "bëtsama": 8945,
      "bëvudu": 8946,
      "bëtsendege": 8947,
      "bëfonda": 8948,
      "bëwomëṅan": 8949,
      "bëwolobo": 8950,
      "bëmvëlkuma": 8951,
      "bëvomdan": 8952,
      "bëntelë": 8953,
      "bëyègë": 8954,
      "bëṅyidan": 8955,
      "bëmatela": 8956,
      "bënzëmë": 8957,
      "namëngan": 8958,
      "nazora": 8959,
      "narkisus": 8960,
      "amanëṅa": 8961,
      "amfipolis": 8962,
      "ampliatus": 8963,
[...]
